genus 3692
family 1447
of 1358
a 937
re@@ 882
in@@ 869
us 808
s 747
er 720
o 712
o@@ 711
di@@ 701
de@@ 683
e@@ 660
e 651
ing 637
i 636
ar@@ 614
co@@ 604
y 603
t 585
ation 577
k@@ 574
um 534
li@@ 532
on 525
en@@ 523
i@@ 521
al@@ 520
ti@@ 515
idae 509
p@@ 504
ia 489
an@@ 486
lo@@ 484
y@@ 482
con@@ 480
g@@ 476
's 474
in 469
le@@ 468
u@@ 463
d@@ 456
ri@@ 451
un@@ 443
ro@@ 442
an 439
n@@ 433
aceae 431
pro@@ 429
si@@ 429
tree 428
ch@@ 427
ic 424
po@@ 424
on@@ 420
order 418
s@@ 416
al 411
am@@ 408
mo@@ 406
to@@ 402
or@@ 400
ate 399
ac@@ 394
er@@ 393
bo@@ 387
t@@ 385
tri@@ 385
per@@ 381
car@@ 376
h@@ 374
at@@ 370
a@@ 369
ed 367
la@@ 363
k 356
p 356
d 355
b@@ 352
im@@ 349
no@@ 348
par@@ 348
es 343
sh@@ 338
ad@@ 337
w@@ 335
le 333
man 333
se@@ 332
ine 327
l 323
id 321
c@@ 320
m@@ 320
line 319
fish 317
ra@@ 316
ism 315
st@@ 314
ex@@ 311
f@@ 310
ne@@ 310
b 307
z@@ 303
as@@ 302
ata 300
pe@@ 300
ab@@ 296
g 296
v@@ 295
is 294
ag@@ 292
system 292
th@@ 291
ness 290
ul@@ 290
ap@@ 289
em@@ 289
es@@ 289
x 289
do@@ 287
op@@ 284
om@@ 281
m 280
water 280
mar@@ 279
and 278
ic@@ 273
pre@@ 272
pi@@ 270
can@@ 269
cor@@ 269
mon@@ 269
ist 268
the 268
vi@@ 268
is@@ 267
man@@ 266
tic 266
ma@@ 262
oc@@ 262
ter 262
white 260
sis 259
et@@ 258
ph@@ 258
sp@@ 256
age 255
red 252
sc@@ 252
n 250
acid 247
plant 247
qu@@ 247
tion 245
cal@@ 244
unit 243
be@@ 242
me@@ 242
ian 240
ium 240
ver@@ 240
u 239
ator 238
ment 238
so@@ 238
it@@ 237
id@@ 236
l@@ 236
grass 235
wood 234
c 233
el@@ 233
te@@ 231
bi@@ 230
sub@@ 229
ent 228
ter@@ 228
de 227
dis@@ 227
black 223
go@@ 221
mer@@ 221
poly@@ 221
ant 220
anti@@ 219
common 218
ec@@ 218
ity 218
ur@@ 218
he@@ 214
inter@@ 213
alis 211
j@@ 211
gu@@ 209
house 208
ar 207
ting 206
iness 205
se 205
ker 204
sia 204
ales 203
aria 203
law 201
american 200
bar@@ 200
ci@@ 200
com@@ 200
ence 200
ste@@ 199
time 199
ly@@ 198
tu@@ 198
mal@@ 197
ella 196
ta 196
ance 195
us@@ 195
for@@ 193
te 193
fern 192
ce@@ 191
su@@ 191
tis 191
um@@ 191
ina 188
day 187
ho@@ 186
sa@@ 186
ea 185
ni@@ 185
number 185
one 185
board 184
ca@@ 184
h 183
vein 182
der 181
ent@@ 181
ge@@ 180
cu@@ 179
il@@ 179
r@@ 179
ta@@ 179
el 177
ite 177
ob@@ 176
class 175
mi@@ 175
oil 174
ru@@ 174
sal@@ 174
bird 173
my@@ 172
head 171
min@@ 171
pan@@ 171
ten@@ 169
pal@@ 168
ber@@ 167
king 166
lin@@ 166
pen@@ 166
leaf 165
bal@@ 164
bri@@ 164
ling 164
ability 163
ma 163
tor@@ 163
per 162
cat@@ 161
disease 161
du@@ 160
mor@@ 160
ut@@ 160
pine 159
bro@@ 158
cy@@ 158
tro@@ 158
pin@@ 157
sea 157
der@@ 156
lan@@ 156
ary 155
cer@@ 155
gi@@ 155
or 155
st 155
non@@ 154
ran@@ 154
field 153
up 153
cap@@ 152
mat@@ 152
x@@ 152
bu@@ 151
mis@@ 151
sion 151
weed 151
atus 150
gen@@ 150
fe@@ 149
ir@@ 149
men@@ 149
pri@@ 149
sch@@ 149
ser@@ 148
tive 148
tur@@ 148
ula 148
we@@ 148
at 147
micro@@ 147
por@@ 147
ton@@ 147
yellow 146
cell 145
et 145
blue 144
ol@@ 144
bur@@ 143
ach@@ 142
ball 142
da 142
gal@@ 142
ry 142
light 141
vena 141
ch 140
lation 140
tor 140
en 139
mu@@ 139
os@@ 139
atomic 138
chi@@ 138
eness 138
hyper@@ 138
language 138
ding 137
flower 137
io@@ 137
monetary 137
tar@@ 137
ang@@ 136
as 136
ide 136
ana 135
and@@ 135
ast@@ 135
her@@ 135
ster 135
tia 135
tra@@ 135
vo@@ 135
ality 134
dium 134
ler 134
fire 133
har@@ 133
hy@@ 133
ship 133
ven@@ 133
cam@@ 132
room 132
sa 132
air 131
au@@ 131
gra@@ 131
da@@ 130
land 130
oph@@ 130
point 130
pu@@ 130
ble 128
box 128
ga@@ 128
ly 128
over@@ 128
tic@@ 128
hypo@@ 127
ous 127
che@@ 126
cho@@ 126
cre@@ 126
dy@@ 126
gar@@ 126
ig@@ 126
den@@ 125
ha@@ 125
pa@@ 125
tan@@ 125
tus 125
back 124
fer@@ 124
it 124
na@@ 124
ve 124
ger@@ 123
logy 123
self 123
ty 123
ad 122
bean 122
ing@@ 122
ster@@ 122
berry 121
ce 121
cur@@ 121
wild 121
ase 120
col@@ 120
dog 120
let 120
super@@ 120
ak@@ 119
artery 119
cro@@ 119
il 118
val@@ 118
ve@@ 118
w 118
work 118
ae 117
ari@@ 117
av@@ 117
hal@@ 117
ke@@ 117
r 117
sti@@ 117
wort 117
az@@ 116
ca 116
ery 116
gri@@ 116
mac@@ 116
to 116
ousness 115
ple@@ 115
hi@@ 114
ard 113
bush 113
fo@@ 113
lia 113
met@@ 113
tre@@ 113
ur 113
aster 112
ati@@ 112
ement 112
lam@@ 112
old 112
pea 112
ra 112
alism 111
ep@@ 111
paper 111
service 111
th 111
fly 110
person 110
stone 110
tal@@ 109
ill@@ 108
pic@@ 108
ver 108
high 107
log@@ 107
lu@@ 107
ry@@ 107
bone 106
car 106
ff 106
sw@@ 106
war@@ 106
char@@ 105
lat@@ 105
na 105
body 104
bor@@ 104
f 104
horse 104
hydro@@ 104
ju@@ 104
snake 104
urus 104
cus 103
mountain 103
nut 103
rac@@ 103
ts 103
oak 102
sen@@ 102
sin@@ 102
sto@@ 102
agent 101
dic@@ 101
don@@ 101
ger 101
green 101
sor@@ 101
stri@@ 101
cla@@ 100
pet@@ 100
ther@@ 100
book 99
des@@ 99
european 99
fla@@ 99
pla@@ 99
sco@@ 99
tail 99
ure 99
way 99
ensis 98
mus 98
ty@@ 98
under@@ 98
ba@@ 97
ber 97
ff@@ 97
pho@@ 97
ps 97
sur@@ 97
test 97
tidae 97
uro@@ 97
worm 97
ath@@ 96
cha@@ 96
chlor@@ 96
dro@@ 96
drug 96
eth@@ 96
ice 96
mas@@ 96
root 96
sk@@ 96
anth@@ 95
ative 95
bar 95
ble@@ 95
bon@@ 95
bra@@ 95
eu@@ 95
group 95
ili@@ 95
illa 95
indian 95
mus@@ 95
tin@@ 95
vol@@ 95
ban@@ 94
ed@@ 94
machine 94
py@@ 94
sol@@ 94
uri@@ 94
ableness 93
ade 93
cas@@ 93
er's 93
ica 93
jo@@ 93
pa 93
rock 93
school 93
cra@@ 92
fi@@ 92
ge 92
gon@@ 92
hem@@ 92
sem@@ 92
son@@ 92
table 92
ano@@ 91
dra@@ 91
ero@@ 91
foot 91
gro@@ 91
ground 91
hand 91
logist 91
out@@ 91
rate 91
san@@ 91
tes 91
atum 90
clo@@ 90
cul@@ 90
double 90
folia 90
lily 90
macro@@ 90
ora 90
phy@@ 90
set 90
vic@@ 90
bul@@ 89
chor@@ 89
department 89
ner 89
power 89
ring 89
ser 89
tation 89
wa@@ 89
wing 89
apo@@ 88
apple 88
don 88
form 88
inus 88
iron 88
kin@@ 88
lic 88
nor@@ 88
ram@@ 88
rat@@ 88
bus 87
cy 87
gy@@ 87
ization 87
ology 87
pul@@ 87
tea 87
ton 87
able 86
alist 86
ating 86
blood 86
la 86
pe 86
world 86
z 86
bre@@ 85
fl@@ 85
gas 85
golden 85
ides 85
lidae 85
mes@@ 85
ren@@ 85
stock 85
sweet 85
ben@@ 84
cent@@ 84
iaceae 84
neuro@@ 84
side 84
ura 84
ut 84
wh@@ 84
ace@@ 83
ant@@ 83
by 83
dri@@ 83
gre@@ 83
ke 83
lar@@ 83
mono@@ 83
pat@@ 83
pter@@ 83
pur@@ 83
state 83
syn@@ 83
anthus 82
ele@@ 82
fri@@ 82
isation 82
lus 82
ox@@ 82
plan@@ 82
rec@@ 82
second 82
the@@ 82
arteria 81
back@@ 81
but@@ 81
end@@ 81
ical 81
ii 81
mid@@ 81
ne 81
ol 81
pl@@ 81
re 81
star 81
am 80
ated 80
bank 80
game 80
muscle 80
rin@@ 80
rub@@ 80
ss@@ 80
ture 80
vine 80
aff@@ 79
anus 79
ash 79
bill 79
bread 79
cat 79
corn 79
electric 79
head@@ 79
hom@@ 79
ko@@ 79
ny 79
sar@@ 79
zo@@ 79
cher 78
church 78
dam@@ 78
equ@@ 78
eye 78
ida 78
iz@@ 78
lic@@ 78
moth 78
nerve 78
tax 78
tom@@ 78
ale 77
bed 77
case 77
dor@@ 77
eg@@ 77
est@@ 77
fa@@ 77
false 77
ful 77
lis 77
party 77
suborder 77
word 77
alization 76
arch 76
area 76
counter@@ 76
cri@@ 76
electro@@ 76
ency 76
era 76
glo@@ 76
gum 76
life 76
low 76
ping 76
process 76
tele@@ 76
uc@@ 76
cin@@ 75
dy 75
eus 75
lac@@ 75
lon@@ 75
program 75
western 75
dec@@ 74
ell@@ 74
fal@@ 74
fever 74
gam@@ 74
ka 74
pus 74
que 74
silver 74
squ@@ 74
tam@@ 74
trans@@ 74
alisation 73
ee 73
fulness 73
ga 73
gun 73
ius 73
lar 73
les 73
mag@@ 73
me 73
od@@ 73
plo@@ 73
right 73
tism 73
bility 72
computer 72
din@@ 72
down 72
ela@@ 72
graphy 72
ham@@ 72
hor@@ 72
hu@@ 72
hum@@ 72
mer 72
ner@@ 72
new 72
phyllum 72
rose 72
son 72
sta@@ 72
v 72
xi@@ 72
ass@@ 71
bell 71
company 71
ker@@ 71
pon@@ 71
seed 71
station 71
thy@@ 71
tr@@ 71
vit@@ 71
ya 71
ae@@ 70
bag 70
black@@ 70
boat 70
color 70
far@@ 70
first 70
glass 70
itis 70
military 70
opsis 70
pap@@ 70
phal@@ 70
sauce 70
sil@@ 70
stre@@ 70
sun@@ 70
tube 70
atic 69
bl@@ 69
card 69
dar@@ 69
lessness 69
my 69
peri@@ 69
bin@@ 68
boy 68
business 68
gn@@ 68
gy 68
len@@ 68
meter 68
ning 68
onia 68
ori@@ 68
sel@@ 68
space 68
spar@@ 68
syndrome 68
wal@@ 68
cross 67
eli@@ 67
emia 67
esis 67
ev@@ 67
fu@@ 67
great 67
home 67
lor@@ 67
maker 67
plane 67
post 67
pper 67
public 67
uni@@ 67
vin@@ 67
bit 66
bomb 66
cap 66
cherry 66
dia 66
dness 66
ds 66
fle@@ 66
force 66
gh@@ 66
go 66
gram 66
nu@@ 66
stra@@ 66
va 66
alo@@ 65
bun@@ 65
cephal@@ 65
cle@@ 65
ette 65
fre@@ 65
hole 65
ist@@ 65
lim@@ 65
master 65
off 65
plate 65
som@@ 65
stic@@ 65
sus 65
woman 65
bla@@ 64
court 64
dance 64
disorder 64
end 64
factor 64
int@@ 64
pit@@ 64
sam@@ 64
sive 64
theory 64
tin 64
tran@@ 64
united 64
action 63
ax 63
cit@@ 63
ear@@ 63
ene 63
hand@@ 63
idi@@ 63
japanese 63
led 63
mit@@ 63
music 63
net 63
nia 63
palm 63
rat 63
ron@@ 63
stro@@ 63
tics 63
wheel 63
ah 62
art 62
bio@@ 62
control 62
food 62
half 62
ir 62
joint 62
leaved 62
mel@@ 62
osa 62
pel@@ 62
purple 62
ration 62
sand@@ 62
trac@@ 62
und@@ 62
wer 62
angle 61
ato@@ 61
bat@@ 61
ck@@ 61
english 61
ens 61
garden 61
hol@@ 61
ial 61
lin 61
lion 61
mental 61
onic 61
oxy@@ 61
pin 61
pra@@ 61
radi@@ 61
sh 61
shot 61
stick 61
tional 61
ub@@ 61
war 61
yl 61
zer 61
ak 60
be 60
bug 60
cake 60
cir@@ 60
dan@@ 60
giant 60
long 60
operation 60
pot@@ 60
sity 60
skin 60
social 60
str@@ 60
win@@ 60
wood@@ 60
dwarf 59
idea 59
intelligence 59
ish 59
lamp 59
magnetic 59
milk 59
oma 59
photo@@ 59
pipe 59
plat@@ 59
ron 59
rum 59
beetle 58
bit@@ 58
chan@@ 58
general 58
ino@@ 58
ion 58
ire 58
orchid 58
out 58
poli@@ 58
post@@ 58
pun@@ 58
rus 58
shi@@ 58
sph@@ 58
ss 58
sy 58
tical 58
til@@ 58
tomy 58
acro@@ 57
air@@ 57
ba 57
cen@@ 57
coc@@ 57
crab 57
dom@@ 57
epi@@ 57
flo@@ 57
french 57
good 57
han@@ 57
ics 57
ile 57
ill 57
liness 57
lock 57
mark 57
market 57
mil@@ 57
night 57
num@@ 57
ometer 57
phor@@ 57
potato 57
press 57
race 57
ris 57
scale 57
sm 57
wave 57
auto@@ 56
bat 56
eria 56
free 56
heart 56
key 56
nic@@ 56
orange 56
ory 56
pas@@ 56
red@@ 56
ric 56
science 56
shop 56
sy@@ 56
tac@@ 56
tem@@ 56
tho@@ 56
up@@ 56
virus 56
vis@@ 56
'@@ 55
aph@@ 55
bel@@ 55
block 55
chinese 55
ck 55
coat 55
cock@@ 55
dae 55
ers 55
ese 55
gla@@ 55
ide@@ 55
mouse 55
spec@@ 55
spor@@ 55
stom@@ 55
suit 55
tet@@ 55
tium 55
tness 55
ud@@ 55
ure@@ 55
use 55
yo@@ 55
bas@@ 54
cli@@ 54
co 54
fin@@ 54
graph 54
ination 54
ise 54
iser 54
lem@@ 54
national 54
thi@@ 54
var@@ 54
west 54
yc@@ 54
ack 53
actin@@ 53
aris 53
bic@@ 53
ching 53
cup 53
cyclo@@ 53
dal@@ 53
ena 53
gland 53
inf@@ 53
iso@@ 53
oid 53
oo@@ 53
ot 53
sand 53
set@@ 53
sin 53
sn@@ 53
steel 53
tab@@ 53
aco@@ 52
bark 52
br@@ 52
brown 52
center 52
chain 52
cyto@@ 52
data 52
duc@@ 52
eri@@ 52
ess 52
geo@@ 52
letter 52
major 52
mut@@ 52
off@@ 52
office 52
ola 52
pinus 52
prunus 52
quin@@ 52
sap@@ 52
sian 52
sla@@ 52
sman 52
subclass 52
sym@@ 52
thal@@ 52
trade 52
tt@@ 52
type 52
ute 52
wind 52
acanth@@ 51
ache 51
asi@@ 51
cham@@ 51
chin@@ 51
death 51
fun@@ 51
fungus 51
gram@@ 51
gran@@ 51
hoo@@ 51
jack 51
mic@@ 51
nus 51
ph 51
pyro@@ 51
reaction 51
sac@@ 51
shell 51
slo@@ 51
sodium 51
tw@@ 51
willow 51
wor@@ 51
1@@ 50
acea 50
aea 50
aqu@@ 50
arch@@ 50
chemical 50
comp@@ 50
ded 50
des 50
fac@@ 50
ft 50
hard 50
ja@@ 50
metal 50
mul@@ 50
organ 50
pec@@ 50
piece 50
pig@@ 50
prairie 50
quercus 50
ral 50
ray 50
sci@@ 50
security 50
sing 50
tiveness 50
ulus 50
vari@@ 50
water@@ 50
wine 50
1 49
ac 49
arc@@ 49
asis 49
assi@@ 49
ater 49
big 49
blo@@ 49
call 49
chus 49
coffee 49
cream 49
didae 49
dle 49
dre@@ 49
est 49
fer 49
fication 49
gia 49
gun@@ 49
hair 49
hel@@ 49
heli@@ 49
hot 49
ine@@ 49
list 49
low@@ 49
lum@@ 49
osis 49
play 49
spin@@ 49
suc@@ 49
sugar 49
tetra@@ 49
tist 49
wall 49
wi@@ 49
2@@ 48
aden@@ 48
bil@@ 48
club 48
fire@@ 48
gan@@ 48
green@@ 48
hex@@ 48
icus 48
ky 48
leg@@ 48
lla 48
mass 48
pepper 48
pie 48
proto@@ 48
ption 48
saurus 48
states 48
therapy 48
ular 48
violet 48
weight 48
ze 48
account 47
adi@@ 47
af@@ 47
bac@@ 47
band 47
by@@ 47
cel@@ 47
cer 47
check 47
chro@@ 47
daisy 47
do 47
flying 47
fruit 47
gray 47
grey 47
ka@@ 47
ket@@ 47
love 47
multi@@ 47
musculus 47
phone 47
plum 47
saw 47
sho@@ 47
sta 47
star@@ 47
sty@@ 47
sum 47
tal 47
tax@@ 47
thro@@ 47
tle 47
top 47
vel@@ 47
ans 46
atory 46
calli@@ 46
chicken 46
cory@@ 46
council 46
drop 46
dry 46
edi@@ 46
elo@@ 46
eno@@ 46
ey@@ 46
haem@@ 46
horn 46
hyd@@ 46
iousness 46
lun@@ 46
mam@@ 46
mia 46
nar@@ 46
ony@@ 46
ops 46
optera 46
pent@@ 46
posi@@ 46
powder 46
psi@@ 46
que@@ 46
ring@@ 46
soft 46
tooth 46
tory 46
tun@@ 46
vul@@ 46
ys 46
african 45
animal 45
anism 45
brain 45
bus@@ 45
care 45
cic@@ 45
cut@@ 45
eff@@ 45
engine 45
face 45
flu@@ 45
fra@@ 45
genesis 45
guard 45
ings 45
ip@@ 45
ja 45
lec@@ 45
lium 45
natural 45
opus 45
place 45
pp@@ 45
pt 45
pto@@ 45
ridae 45
roll 45
sarco@@ 45
spo@@ 45
spring 45
stor@@ 45
subfamily 45
trust 45
wil@@ 45
window 45
ying 45
. 44
ax@@ 44
bond 44
cal 44
california 44
dog@@ 44
eal 44
ech@@ 44
enter@@ 44
ering 44
gg@@ 44
gus 44
hetero@@ 44
iformes 44
ingness 44
kin 44
level 44
lism 44
lizard 44
luc@@ 44
medi@@ 44
money 44
mushroom 44
nel 44
ocarpus 44
officer 44
oli@@ 44
onidae 44
opteris 44
ou@@ 44
pan 44
phylla 44
pink 44
position 44
pot 44
rho@@ 44
safety 44
sation 44
sor 44
thermo@@ 44
thor@@ 44
tim@@ 44
ua 44
buc@@ 43
can 43
cedar 43
cet@@ 43
che 43
cher@@ 43
defense 43
fic@@ 43
file 43
four 43
ft@@ 43
gen 43
iner 43
instrument 43
mand@@ 43
mang@@ 43
meg@@ 43
mur@@ 43
ocar@@ 43
ocy@@ 43
ole@@ 43
part 43
phon@@ 43
pid@@ 43
pod 43
pping 43
pseudo@@ 43
pti@@ 43
round 43
shar@@ 43
square 43
sup@@ 43
terrier 43
ule 43
van@@ 43
wel@@ 43
worker 43
yard 43
ze@@ 43
ach 42
agency 42
aly@@ 42
ancy 42
bet@@ 42
chair 42
division 42
dollar 42
door 42
energy 42
fil@@ 42
flora 42
fran@@ 42
ful@@ 42
girl 42
heat 42
international 42
ll@@ 42
mati@@ 42
pag@@ 42
phen@@ 42
phus 42
pil@@ 42
ple 42
proc@@ 42
prote@@ 42
relation 42
rh@@ 42
rum@@ 42
siveness 42
sou@@ 42
stic 42
stoma 42
stu@@ 42
arius 41
ather@@ 41
bran@@ 41
brush 41
cab@@ 41
comm@@ 41
coral 41
cotton 41
crypto@@ 41
cs 41
device 41
dio@@ 41
doctor 41
flor@@ 41
front 41
hat 41
izer 41
lens 41
ley 41
motion 41
name 41
non 41
northern 41
organization 41
os 41
pac@@ 41
past@@ 41
pocket 41
podi@@ 41
pressure 41
qui@@ 41
shark 41
short 41
sle@@ 41
stage 41
tap@@ 41
ted 41
tru@@ 41
true 41
ulation 41
yer 41
zone 41
0 40
americana 40
anthera 40
ational 40
atri@@ 40
chal@@ 40
code 40
colum@@ 40
credit 40
dry@@ 40
eastern 40
egg 40
electronic 40
eter 40
formes 40
gue 40
human 40
ie 40
iris 40
iv@@ 40
je@@ 40
lea@@ 40
lut@@ 40
ming 40
motor 40
nec@@ 40
nit@@ 40
ore 40
oxide 40
radio 40
road 40
sheet 40
small 40
smo@@ 40
swamp 40
tag@@ 40
ue 40
ving 40
voc@@ 40
zz@@ 40
.@@ 39
acy 39
alia 39
all 39
amph@@ 39
bear 39
bee 39
big@@ 39
cheese 39
chel@@ 39
chryso@@ 39
cloth 39
colour 39
course 39
d's 39
den 39
dic 39
dus 39
for 39
hood 39
inum 39
jam@@ 39
knife 39
less 39
ley@@ 39
lit@@ 39
little 39
mail 39
medicine 39
moss 39
pis@@ 39
poda 39
pole 39
price 39
put@@ 39
roman 39
s' 39
sab@@ 39
sense 39
ses@@ 39
sex 39
sign@@ 39
ssi@@ 39
stag@@ 39
stan@@ 39
stin@@ 39
thri@@ 39
tion@@ 39
two 39
ugh 39
uria 39
ward 39
wax 39
bass 38
birth 38
cop@@ 38
cru@@ 38
doc@@ 38
ear 38
eco@@ 38
em 38
ema 38
enti@@ 38
fier 38
gate 38
gly@@ 38
gold 38
iling 38
insurance 38
ishness 38
jack@@ 38
ks 38
labor 38
land@@ 38
lead 38
lep@@ 38
lyco@@ 38
material 38
medical 38
method 38
minor 38
movement 38
ny@@ 38
odon 38
pes 38
psycho@@ 38
radiation 38
rhiz@@ 38
rocket 38
rule 38
section 38
site 38
spe@@ 38
stat@@ 38
street 38
sum@@ 38
television 38
third 38
va@@ 38
ves@@ 38
year 38
zi@@ 38
2 37
abo@@ 37
acc@@ 37
ala 37
andra 37
ateness 37
auri@@ 37
ay@@ 37
baby 37
bottle 37
central 37
circuit 37
clin@@ 37
cular 37
dity 37
elli@@ 37
ex 37
federal 37
fore@@ 37
gul@@ 37
heter@@ 37
ila 37
jacket 37
jun@@ 37
ket 37
memory 37
ment@@ 37
mol@@ 37
mun@@ 37
nem@@ 37
new@@ 37
onion 37
oste@@ 37
pad 37
pedi@@ 37
plexus 37
rack 37
rag@@ 37
rine 37
ro 37
royal 37
sal 37
secretary 37
sexual 37
show 37
soph@@ 37
south 37
spot 37
standard 37
string 37
tan 37
tedness 37
tuber@@ 37
ug@@ 37
vulgaris 37
ware 37
whit@@ 37
wind@@ 37
za 37
aer@@ 36
amine 36
analysis 36
arian 36
au 36
bin 36
birch 36
bis@@ 36
bo 36
brake 36
bull@@ 36
butter 36
butterfly 36
cau@@ 36
charge 36
city 36
conver@@ 36
coun@@ 36
ction 36
cub@@ 36
dom 36
ental 36
eti@@ 36
fluor@@ 36
gem@@ 36
glut@@ 36
government 36
hippo@@ 36
hon@@ 36
icum 36
industry 36
king@@ 36
lady 36
monkey 36
myr@@ 36
nat@@ 36
nuclear 36
open 36
organ@@ 36
osc@@ 36
ov@@ 36
phyllo@@ 36
plum@@ 36
resi@@ 36
roph@@ 36
rus@@ 36
rush 36
salt 36
she@@ 36
sound 36
spanish 36
stitch 36
sul@@ 36
telephone 36
thistle 36
tie 36
tongue 36
trich@@ 36
wn 36
yl@@ 36
amphi@@ 35
ath 35
bab@@ 35
bridge 35
buck@@ 35
cac@@ 35
conf@@ 35
coo@@ 35
cran@@ 35
dd@@ 35
del@@ 35
eng@@ 35
fan@@ 35
film 35
frog 35
gation 35
hound 35
ile@@ 35
inae 35
ind@@ 35
ki@@ 35
legal 35
let@@ 35
ll 35
loan 35
mad@@ 35
man's 35
marsh 35
may@@ 35
mine 35
mouth 35
musical 35
noc@@ 35
oides 35
ologist 35
personal 35
phi@@ 35
physi@@ 35
platy@@ 35
player 35
poppy 35
principle 35
rhin@@ 35
sion@@ 35
sl@@ 35
snow@@ 35
spotted 35
stem@@ 35
tailed 35
tial 35
tica 35
tile 35
tus@@ 35
ugh@@ 35
union 35
valve 35
wheat 35
winter 35
acet@@ 34
alba 34
amar@@ 34
ane 34
arti@@ 34
base 34
bay 34
bleness 34
bom@@ 34
boo@@ 34
calendar 34
cle 34
clu@@ 34
cold 34
color@@ 34
correlation 34
cou@@ 34
date 34
dress 34
drive 34
duck 34
east 34
ectomy 34
fera 34
gon 34
hat@@ 34
jer@@ 34
kal@@ 34
kar@@ 34
lea 34
logical 34
melo@@ 34
milli@@ 34
myo@@ 34
myx@@ 34
north 34
penstemon 34
picture 34
police 34
primary 34
roo@@ 34
salad 34
salix 34
sine 34
sli@@ 34
solar 34
sper@@ 34
storm 34
structure 34
sun 34
tar 34
tes@@ 34
three 34
top@@ 34
alness 33
arum 33
ast 33
bed@@ 33
beta 33
bium 33
cad@@ 33
cast@@ 33
cation 33
change 33
cock 33
cost 33
counter 33
cow@@ 33
cress 33
current 33
dead 33
deck 33
dum@@ 33
elling 33
eman 33
euro@@ 33
fen@@ 33
fiber 33
fol@@ 33
gene 33
ging 33
gor@@ 33
grape 33
health 33
imper@@ 33
indi@@ 33
ita 33
ken@@ 33
leuc@@ 33
maple 33
meat 33
nap@@ 33
nas@@ 33
nation 33
nis 33
ocephal@@ 33
onal 33
ope 33
ophora 33
opo@@ 33
phase 33
phos@@ 33
processing 33
pump 33
reflex 33
roman@@ 33
rubber 33
sage 33
seal 33
sha@@ 33
sheep 33
shoe 33
single 33
steak 33
sting 33
storage 33
tent 33
tone 33
tum 33
vus 33
' 32
aca 32
ade@@ 32
ai 32
alli@@ 32
amo@@ 32
ang 32
ariaceae 32
atidae 32
ator@@ 32
australian 32
basket 32
bath 32
beef 32
begonia 32
blight 32
canadensis 32
chia 32
civil 32
coal 32
cola 32
compound 32
contract 32
country 32
cry@@ 32
cut 32
cypress 32
dacty@@ 32
dea 32
deli@@ 32
dian 32
dine 32
disk 32
disp@@ 32
drac@@ 32
elle 32
elm 32
etic 32
farm 32
fir 32
flag 32
folium 32
fus@@ 32
gastro@@ 32
german 32
grand 32
hen 32
holy 32
hormone 32
iidae 32
iler 32
ion@@ 32
ish@@ 32
keeper 32
last 32
leuco@@ 32
logic 32
maj@@ 32
male 32
mallow 32
mid 32
mill@@ 32
mother 32
note 32
odon@@ 32
ole 32
pidae 32
political 32
port 32
protein 32
pt@@ 32
q@@ 32
run 32
sati@@ 32
seat 32
sex@@ 32
sign 32
speech 32
spi@@ 32
sten@@ 32
stop 32
ten 32
tide 32
tiv@@ 32
tonia 32
vil@@ 32
wat@@ 32
wire 32
ada 31
aking 31
alpha 31
alty 31
ama 31
ani 31
army 31
away 31
bag@@ 31
balance 31
basi@@ 31
bow@@ 31
building 31
capit@@ 31
chocolate 31
colo@@ 31
communication 31
cover 31
crown 31
dac@@ 31
deer 31
dge 31
diplo@@ 31
dish 31
electrical 31
eo@@ 31
fet@@ 31
fur@@ 31
gear 31
gle@@ 31
ground@@ 31
hair@@ 31
holder 31
hun@@ 31
iana 31
kn@@ 31
knot 31
lati@@ 31
lemon 31
ler@@ 31
lipo@@ 31
lite 31
lity 31
lock@@ 31
lymph@@ 31
magne@@ 31
med@@ 31
mexican 31
mic 31
naval 31
ned 31
nose 31
omy@@ 31
onist 31
ony 31
oral 31
phylum 31
pilot 31
plan 31
prin@@ 31
range 31
reed 31
ric@@ 31
rock@@ 31
sat@@ 31
scal@@ 31
screw 31
sep@@ 31
sim@@ 31
squirrel 31
stal@@ 31
store 31
surface 31
swe@@ 31
ti 31
ticket 31
tissue 31
tum@@ 31
uck@@ 31
ust 31
value 31
vision 31
watch 31
whale 31
wl 31
work@@ 31
xanth@@ 31
zation 31
ado 30
als 30
amin@@ 30
anda 30
anum 30
att@@ 30
ature 30
beech 30
brac@@ 30
bron@@ 30
cell@@ 30
chamber 30
chec@@ 30
chem@@ 30
cidae 30
clock 30
cone 30
corn@@ 30
cow 30
cum@@ 30
direct 30
dressing 30
dum 30
ean 30
economic 30
erythro@@ 30
eta 30
ffle 30
fin 30
foli@@ 30
high@@ 30
hour 30
immuno@@ 30
inc@@ 30
int 30
jac@@ 30
ki 30
lime 30
mal 30
meadow 30
mig@@ 30
mili@@ 30
mint 30
mustard 30
object 30
oper@@ 30
period 30
pha 30
pit 30
pleuro@@ 30
print 30
quad@@ 30
rabbit 30
religious 30
rest 30
scor@@ 30
sinus 30
soci@@ 30
soli@@ 30
southern 30
special 30
summer 30
superior 30
surgery 30
ticus 30
tle@@ 30
ump 30
und 30
virgin@@ 30
visual 30
vitamin 30
xy@@ 30
zia 30
5 29
ake 29
alcohol 29
anim@@ 29
ash@@ 29
aver@@ 29
bal 29
barb@@ 29
beer 29
bler 29
blue@@ 29
book@@ 29
cactus 29
caly@@ 29
cavity 29
chief 29
child 29
chloride 29
cili@@ 29
clover 29
coccus 29
dasy@@ 29
dock 29
domin@@ 29
duty 29
eller 29
eph@@ 29
equipment 29
ete 29
ey 29
fibro@@ 29
finger 29
fum@@ 29
fund 29
gin@@ 29
goose 29
greek 29
hop 29
horse@@ 29
hymen@@ 29
inferior 29
internal 29
iri@@ 29
kle 29
lepto@@ 29
liber@@ 29
mate 29
meli@@ 29
mill 29
mission 29
native 29
neck 29
pet 29
physical 29
plac@@ 29
play@@ 29
pli@@ 29
printing 29
property 29
psych@@ 29
radical 29
schiz@@ 29
signal 29
ski@@ 29
soil 29
step 29
stroke 29
sus@@ 29
tant 29
tivity 29
toad 29
ularia 29
ulata 29
ulo@@ 29
via 29
well 29
wre@@ 29
zing 29
allo@@ 28
alpine 28
angio@@ 28
ania 28
anterior 28
are 28
bacteria 28
belt 28
blind 28
bol@@ 28
bry@@ 28
carbon 28
carpus 28
cart 28
cast 28
chap@@ 28
cloud 28
commission 28
cord 28
cum 28
dancing 28
day@@ 28
degree 28
ecto@@ 28
eer 28
elder 28
element 28
ening 28
ere 28
fig 28
flam@@ 28
form@@ 28
full 28
geranium 28
gloss@@ 28
large 28
leg 28
lip 28
litis 28
lob@@ 28
long@@ 28
loo@@ 28
megal@@ 28
myri@@ 28
no 28
och@@ 28
omycetes 28
ore@@ 28
pay@@ 28
pol@@ 28
product 28
rain 28
rap@@ 28
raph@@ 28
run@@ 28
scope 28
snow 28
staff 28
strawberry 28
strip 28
tail@@ 28
tape 28
thus 28
toxin 28
tter 28
tub@@ 28
veness 28
vesti@@ 28
visi@@ 28
weather 28
3@@ 27
6 27
8 27
acar@@ 27
activity 27
acute 27
appro@@ 27
ariidae 27
aw@@ 27
band@@ 27
beam 27
blen@@ 27
broom 27
cephalus 27
chest 27
cus@@ 27
cycle 27
dal 27
dendron 27
diabetes 27
dish@@ 27
drill 27
dynasty 27
ellus 27
ery@@ 27
escence 27
flight 27
flowering 27
foot@@ 27
function 27
gener@@ 27
gli@@ 27
glycer@@ 27
grapher 27
ha 27
haw@@ 27
hir@@ 27
holly 27
homo@@ 27
index 27
infection 27
ins 27
insect 27
ire@@ 27
jet 27
lesser 27
lian 27
lot 27
mammal 27
matter 27
middle 27
mon 27
nal 27
nam@@ 27
neo@@ 27
nitro@@ 27
ome 27
omys 27
onom@@ 27
orth@@ 27
printer 27
pub@@ 27
pus@@ 27
py 27
radio@@ 27
record 27
research 27
river 27
row 27
sacchar@@ 27
sales 27
salmon 27
screen 27
scri@@ 27
sec@@ 27
sensi@@ 27
shor@@ 27
sider@@ 27
ski 27
spic@@ 27
spider 27
spir@@ 27
spiri@@ 27
suff@@ 27
tary 27
tennis 27
tobacco 27
train 27
tual 27
vel 27
vent@@ 27
vir@@ 27
waste 27
wo@@ 27
wrench 27
zy@@ 27
3 26
acus 26
ading 26
aker 26
allium 26
alop@@ 26
alter@@ 26
angu@@ 26
annu@@ 26
anti 26
ara 26
arbor@@ 26
arity 26
bell@@ 26
belli@@ 26
bing 26
bog 26
bour@@ 26
camera 26
chestnut 26
chi 26
cl@@ 26
clothes 26
coefficient 26
coron@@ 26
cross@@ 26
cun@@ 26
dental 26
derma 26
dol@@ 26
driver 26
dun@@ 26
dust 26
earth 26
elia 26
endo@@ 26
enia 26
fall 26
fel@@ 26
fem@@ 26
flat 26
flat@@ 26
frequency 26
fron@@ 26
gence 26
gig@@ 26
golf 26
hall 26
ham 26
heath 26
hus@@ 26
ich@@ 26
idaceae 26
ilia 26
inde@@ 26
information 26
inger 26
ining 26
inten@@ 26
ji@@ 26
ken 26
ky@@ 26
mach@@ 26
main 26
narrow 26
nephro@@ 26
ocyte 26
opathy 26
oyster 26
pack@@ 26
pad@@ 26
pale@@ 26
patri@@ 26
pen 26
pes@@ 26
pid 26
pitch 26
pres@@ 26
prof@@ 26
quo@@ 26
resin 26
ri 26
rot 26
saint 26
sale 26
sed 26
shock 26
si 26
soc@@ 26
soda 26
spon@@ 26
straight 26
term 26
ther 26
thermometer 26
ties 26
truck 26
turtle 26
uck 26
ulatus 26
under 26
vac@@ 26
vag@@ 26
van 26
very 26
vet@@ 26
vian 26
whole 26
ader 25
ale@@ 25
anemia 25
anthemum 25
anthes 25
aphasia 25
arm@@ 25
assa@@ 25
ate@@ 25
atom@@ 25
atro@@ 25
attack 25
audi@@ 25
bottom 25
bra 25
bull 25
cancer 25
cari@@ 25
cerebral 25
christmas 25
chry@@ 25
cing 25
complex 25
culture 25
cyno@@ 25
daceae 25
diver@@ 25
dle@@ 25
drum 25
elus 25
emp@@ 25
entation 25
epic@@ 25
ety 25
fan 25
fat 25
feather 25
ffer 25
fis@@ 25
fox 25
gger 25
gle 25
goo@@ 25
hog 25
holo@@ 25
house@@ 25
hur@@ 25
ifolia 25
inia 25
irish 25
iti@@ 25
junction 25
key@@ 25
law@@ 25
lettuce 25
liqu@@ 25
lisation 25
lization 25
loph@@ 25
lotus 25
louse 25
making 25
mani@@ 25
mat 25
matrix 25
metry 25
needle 25
nettle 25
nic 25
num 25
nyc@@ 25
opper 25
opter@@ 25
over 25
particle 25
pudding 25
quarter 25
regul@@ 25
ria 25
rod 25
semi@@ 25
seri@@ 25
sing@@ 25
six@@ 25
slip 25
soap 25
sonia 25
spirit 25
spruce 25
squash 25
stock@@ 25
tank 25
thre@@ 25
tico@@ 25
tig@@ 25
tina 25
town 25
traffic 25
trial 25
tude 25
tv 25
usa 25
user 25
vas@@ 25
vig@@ 25
wagon 25
whe@@ 25
wit@@ 25
ace 24
aen@@ 24
ail 24
anemone 24
ani@@ 24
ass 24
bacter@@ 24
bane 24
bear@@ 24
blood@@ 24
blu@@ 24
boot 24
break 24
button 24
camp 24
capital 24
carpet 24
centro@@ 24
chil@@ 24
cian 24
circle 24
cour@@ 24
creeping 24
d'@@ 24
def@@ 24
dent 24
dent@@ 24
disc 24
door@@ 24
dor 24
ductor 24
edness 24
effect 24
ense 24
ento@@ 24
eto@@ 24
euphorbia 24
finger@@ 24
floor 24
folius 24
franc 24
garlic 24
gas@@ 24
gut@@ 24
hemi@@ 24
his@@ 24
hold 24
honeysuckle 24
hook 24
igh@@ 24
inidae 24
iscus 24
ized 24
ked 24
kno@@ 24
laurel 24
li 24
lith@@ 24
loma 24
lower 24
marriage 24
mec@@ 24
meth@@ 24
motor@@ 24
myco@@ 24
nail 24
nau@@ 24
nig@@ 24
nut@@ 24
olus 24
ong 24
ophthal@@ 24
ophyta 24
opsida 24
orus 24
osus 24
paris 24
phil@@ 24
plic@@ 24
potassium 24
pseud@@ 24
psy@@ 24
psychology 24
pum@@ 24
quet 24
rece@@ 24
rhus 24
ror@@ 24
rubus 24
sax@@ 24
serv@@ 24
sni@@ 24
speci@@ 24
spermum 24
stand 24
stem 24
stra 24
tex@@ 24
theater 24
tomato 24
tract 24
uca 24
uridae 24
usness 24
ven 24
vesi@@ 24
wedding 24
wolf 24
worship 24
writing 24
zoo@@ 24
acle 23
act 23
ado@@ 23
after@@ 23
agreement 23
alder 23
all@@ 23
amus 23
aro@@ 23
arts 23
ascen@@ 23
atlantic 23
auditory 23
bass@@ 23
beard 23
beauty 23
bes@@ 23
bid@@ 23
blan@@ 23
bling 23
calcium 23
casu@@ 23
cent 23
cerat@@ 23
chloro@@ 23
closed 23
diet 23
dip@@ 23
dism 23
down@@ 23
duct 23
eagle 23
ei@@ 23
encephalitis 23
ep 23
eration 23
eum 23
fish@@ 23
fix@@ 23
folk 23
formation 23
gang@@ 23
gast@@ 23
gastric 23
gee 23
gi 23
gin 23
gom@@ 23
grade 23
hab@@ 23
hen@@ 23
hip@@ 23
hydrochloride 23
ias 23
ick 23
icul@@ 23
idal 23
inte@@ 23
iron@@ 23
juice 23
kilo@@ 23
ko 23
landing 23
leader 23
league 23
left 23
liter@@ 23
litho@@ 23
liver 23
lli@@ 23
lobium 23
mom@@ 23
moon 23
neg@@ 23
news 23
nom@@ 23
notation 23
ography 23
om 23
optical 23
oscope 23
ose 23
pack 23
pal 23
people 23
personality 23
piano 23
pigeon 23
poin@@ 23
poison 23
ptera 23
punc@@ 23
quar@@ 23
real 23
regi@@ 23
respiratory 23
rever@@ 23
rice 23
rium 23
roof 23
rot@@ 23
running 23
russian 23
saddle 23
scotch 23
sequ@@ 23
sight 23
sium 23
solanum 23
song 23
soup 23
stes 23
ston@@ 23
support 23
tain@@ 23
tamar@@ 23
tee 23
temporal 23
thrombo@@ 23
tionist 23
track 23
ucle@@ 23
verse 23
vor@@ 23
wash@@ 23
wear 23
white@@ 23
working 23
0s 22
4@@ 22
ack@@ 22
acoustic 22
active 22
aena 22
aid 22
alec@@ 22
ali@@ 22
americanus 22
anaemia 22
ann@@ 22
ari 22
arm 22
asper@@ 22
astro@@ 22
ation@@ 22
avi@@ 22
axis 22
baseball 22
battery 22
beach 22
bitter 22
bladder 22
bott@@ 22
brachy@@ 22
brass 22
brassica 22
broad@@ 22
cabbage 22
cane 22
cape 22
cassia 22
cav@@ 22
cement 22
cerato@@ 22
ces 22
chas@@ 22
chemistry 22
chet 22
chip 22
citrus 22
climbing 22
command 22
comple@@ 22
con 22
conce@@ 22
cookie 22
crac@@ 22
cula 22
delivery 22
desert 22
direc@@ 22
disc@@ 22
dist 22
doli@@ 22
domestic 22
drawing 22
duction 22
dutch 22
e's 22
emo@@ 22
eris 22
error 22
estate 22
eucalyptus 22
eury@@ 22
figure 22
financial 22
flow 22
formis 22
fowl 22
frame 22
fro@@ 22
gaz@@ 22
goat 22
grav@@ 22
gum@@ 22
haemo@@ 22
hawk 22
honey 22
ies 22
inal 22
italian 22
itation 22
judgment 22
jum@@ 22
kel@@ 22
kia 22
ku@@ 22
lady's 22
latin 22
lative 22
lig@@ 22
ligh@@ 22
liner 22
liquid 22
living 22
liz@@ 22
maxim@@ 22
medium 22
mile 22
nea 22
nes@@ 22
nov@@ 22
officinalis 22
oning 22
orch@@ 22
orig@@ 22
ot@@ 22
param@@ 22
pass@@ 22
peti@@ 22
plec@@ 22
procedure 22
psilo@@ 22
quadri@@ 22
retic@@ 22
salamander 22
scarlet 22
school@@ 22
sel 22
sham@@ 22
shape 22
sii 22
simple 22
stis 22
style 22
system@@ 22
ter's 22
text 22
ticism 22
trap 22
trem@@ 22
trun@@ 22
tta 22
una 22
vegetable 22
viola 22
wa 22
wage 22
yar@@ 22
yellow@@ 22
zzle 22
4 21
7 21
7@@ 21
9 21
adren@@ 21
aero@@ 21
aling 21
almond 21
ander 21
anom@@ 21
architecture 21
battle 21
bench 21
bert 21
bos 21
bou@@ 21
buffalo 21
candi@@ 21
carrier 21
cash 21
cere@@ 21
ces@@ 21
chlamy@@ 21
coach 21
coco@@ 21
commercial 21
community 21
contra@@ 21
conven@@ 21
cyc@@ 21
dendro@@ 21
dex@@ 21
dial 21
dialect 21
die 21
digital 21
diss@@ 21
education 21
ell 21
ener 21
entry 21
erio@@ 21
etus 21
external 21
fa 21
fab@@ 21
fair 21
fast 21
fault 21
fec@@ 21
female 21
fig@@ 21
fishing 21
fluid 21
foo@@ 21
football 21
foreign 21
gal 21
gallin@@ 21
gentian 21
german@@ 21
gil@@ 21
gir@@ 21
grand@@ 21
graphic 21
growth 21
guinea 21
gymn@@ 21
hag@@ 21
hali@@ 21
horned 21
hot@@ 21
hunting 21
hydrogen 21
idness 21
ification 21
igu@@ 21
inaceae 21
infant 21
jury 21
lage 21
lantern 21
leather 21
lepid@@ 21
lie@@ 21
melan@@ 21
millet 21
mini@@ 21
mir@@ 21
missile 21
moon@@ 21
night@@ 21
nis@@ 21
ocer@@ 21
ock 21
odontidae 21
payment 21
person@@ 21
petro@@ 21
phas@@ 21
pinn@@ 21
pom@@ 21
posterior 21
pow@@ 21
prac@@ 21
q 21
rage 21
rea 21
response 21
rhythm 21
roller 21
row@@ 21
saw@@ 21
scar@@ 21
scler@@ 21
sclero@@ 21
scre@@ 21
script 21
season 21
secre@@ 21
sher 21
ship@@ 21
show@@ 21
sickness 21
slipper 21
smooth 21
someness 21
spinal 21
spore 21
spurge 21
sso@@ 21
stant 21
stle 21
substance 21
tance 21
tec@@ 21
tempor@@ 21
thorn 21
tick 21
tili@@ 21
tower 21
transmission 21
tricho@@ 21
trumpet 21
turn 21
ule@@ 21
upper 21
ury 21
ush 21
uti@@ 21
vehicle 21
venae 21
viol@@ 21
wag@@ 21
whip@@ 21
wn@@ 21
wri@@ 21
xia 21
yn@@ 21
zo 21
ab 20
aceous 20
acer 20
administration 20
amor@@ 20
anag@@ 20
anger 20
arianism 20
arthro@@ 20
asian 20
aspi@@ 20
ater@@ 20
atis 20
automatic 20
bec@@ 20
bia 20
blast 20
bob@@ 20
bot@@ 20
bow 20
breaker 20
bum@@ 20
butter@@ 20
cable 20
candy 20
celery 20
centre 20
character 20
chidae 20
chrysanthemum 20
cium 20
clematis 20
constant 20
contin@@ 20
cot 20
criminal 20
crystal 20
cyan@@ 20
demon@@ 20
development 20
devil 20
digit@@ 20
dir@@ 20
doub@@ 20
eb@@ 20
electron 20
engineer 20
enium 20
erer 20
etes 20
exchange 20
executive 20
exo@@ 20
fairy 20
fid@@ 20
fir@@ 20
fly@@ 20
gad@@ 20
get@@ 20
ght 20
glau@@ 20
globulin 20
gol@@ 20
gramma 20
gs 20
guil@@ 20
gymno@@ 20
hemo@@ 20
hemp 20
hinus 20
ichthy@@ 20
ici@@ 20
ifera 20
ink 20
interest 20
ious 20
ister 20
iter 20
ix 20
ix@@ 20
jasmine 20
kan 20
kangaroo 20
kup 20
lace 20
lap@@ 20
lica 20
lobster 20
loid 20
maidenhair 20
match 20
media 20
melon 20
mentation 20
mercury 20
mole 20
mosch@@ 20
neph@@ 20
nest 20
nigra 20
nurse 20
ograph 20
ok@@ 20
olive 20
ono@@ 20
operating 20
ordin@@ 20
ornis 20
otus 20
ow@@ 20
pacific 20
pae@@ 20
paint 20
partic@@ 20
phobia 20
phyto@@ 20
pneumonia 20
policy 20
pterus 20
puff@@ 20
rach@@ 20
racing 20
ram 20
rant 20
reg@@ 20
rhy@@ 20
runner 20
sad@@ 20
sail 20
saur 20
secondary 20
see@@ 20
sidae 20
silk 20
silver@@ 20
spectrum 20
speed 20
sphincter 20
splen@@ 20
split 20
sted 20
stoc@@ 20
strepto@@ 20
stru@@ 20
stur@@ 20
subdivision 20
sulf@@ 20
swa@@ 20
tage 20
tall 20
tiger 20
ting@@ 20
tions 20
titude 20
tra 20
trache@@ 20
tulip 20
turkey 20
ual 20
uan 20
ularis 20
ulidae 20
unt 20
virginia 20
vity 20
walk 20
wash 20
wel 20
woo@@ 20
yon 20
zan@@ 20
8@@ 19
academy 19
acri@@ 19
adv@@ 19
ail@@ 19
alk@@ 19
amide 19
angi@@ 19
ao 19
ap 19
arab@@ 19
archi@@ 19
argen@@ 19
association 19
bacillus 19
bacterium 19
balsam 19
banana 19
belly 19
bene@@ 19
blindness 19
boy@@ 19
british 19
broad 19
bs 19
bub@@ 19
bureau 19
cardiac 19
caro@@ 19
cha 19
chin 19
chrono@@ 19
cinnamon 19
clam@@ 19
clip 19
collec@@ 19
combat 19
common@@ 19
condition 19
cost@@ 19
cranberry 19
curi@@ 19
dacry@@ 19
decimal 19
di 19
dig@@ 19
dinner 19
distribution 19
draft 19
earth@@ 19
ef@@ 19
ele 19
encephal@@ 19
epilepsy 19
etry 19
event 19
fasci@@ 19
fat@@ 19
father 19
fied 19
fli@@ 19
florum 19
free@@ 19
fuel 19
fusion 19
gauge 19
gency 19
genetic 19
gent 19
geometry 19
get 19
gian 19
gium 19
glove 19
goldenrod 19
grac@@ 19
greater 19
guar@@ 19
hard@@ 19
hay@@ 19
hedron 19
hickory 19
hier@@ 19
horn@@ 19
illi@@ 19
indic@@ 19
industrial 19
iner@@ 19
ithecus 19
jec@@ 19
job 19
jumping 19
kiness 19
kit@@ 19
ladder 19
lane 19
lant 19
legi@@ 19
lene 19
leukemia 19
lili@@ 19
line@@ 19
loqu@@ 19
magnolia 19
march 19
marine 19
meal 19
measure 19
meeting 19
membrane 19
mo 19
moder@@ 19
mole@@ 19
mony 19
morning 19
morph@@ 19
myc@@ 19
mys 19
nervus 19
nin@@ 19
nymph@@ 19
omyc@@ 19
op 19
orchis 19
orn 19
owl 19
pair 19
palae@@ 19
palustris 19
pav@@ 19
ped 19
penny 19
phar@@ 19
phyta 19
pill 19
plantain 19
pound 19
private 19
professional 19
psis 19
psitt@@ 19
punch 19
rab@@ 19
rattlesnake 19
reserve 19
retro@@ 19
rig 19
rite 19
rope 19
rosa 19
rud@@ 19
sergeant 19
sk 19
sleep 19
so 19
sol 19
solution 19
sour 19
sour@@ 19
spiro@@ 19
sport 19
sses 19
status 19
steam 19
stor 19
story 19
straw 19
study 19
sumac 19
sweet@@ 19
switch 19
sword 19
take 19
tch 19
teness 19
tense 19
tent@@ 19
tery 19
thir@@ 19
throat 19
tician 19
tine 19
tire 19
titis 19
tment 19
tool 19
training 19
transi@@ 19
trin@@ 19
twenty 19
ulator 19
ulmus 19
uring 19
uter 19
vet 19
vid@@ 19
view 19
voice 19
warfare 19
winter@@ 19
wol@@ 19
wool 19
woolly 19
yew 19
yx 19
6@@ 18
abilis 18
activ@@ 18
ador@@ 18
ager 18
ago 18
agri@@ 18
aircraft 18
ake@@ 18
anthropo@@ 18
arcto@@ 18
arms 18
artic@@ 18
asa 18
atism 18
baby@@ 18
bachelor 18
bent 18
benzo@@ 18
bet 18
bi 18
bite 18
blade 18
boletus 18
caria 18
ceps 18
chole@@ 18
chon@@ 18
cis 18
clam 18
cler@@ 18
connec@@ 18
consonant 18
continu@@ 18
delph@@ 18
dge@@ 18
diction 18
dow@@ 18
dru@@ 18
dub@@ 18
dul@@ 18
egyptian 18
ek 18
engineering 18
entero@@ 18
entum 18
epis@@ 18
eps 18
eral 18
eri 18
es' 18
esia 18
examination 18
exercise 18
facial 18
fili@@ 18
fit@@ 18
flan@@ 18
flash 18
flour 18
foil 18
found@@ 18
freedom 18
gidae 18
grouse 18
gym@@ 18
habenaria 18
haemat@@ 18
hearing 18
heart@@ 18
her 18
hi 18
hibiscus 18
hin@@ 18
hind@@ 18
holding 18
hypno@@ 18
illus 18
image 18
ipo@@ 18
ira 18
ites 18
judgement 18
jump 18
kerato@@ 18
kick 18
kidney 18
kweed 18
lateral 18
leu@@ 18
library 18
load 18
local 18
lor 18
marsh@@ 18
mela@@ 18
member 18
mening@@ 18
metabo@@ 18
mi 18
mite 18
moun@@ 18
ms 18
must@@ 18
myrtle 18
negative 18
ney 18
nidae 18
noun 18
odo@@ 18
oe@@ 18
olatry 18
ometry 18
onism 18
onyx 18
ophis 18
organic 18
oriental 18
ornith@@ 18
parsley 18
pay 18
peace 18
phag@@ 18
phoen@@ 18
phorus 18
phyl@@ 18
physics 18
pile 18
plastic 18
podidae 18
poll@@ 18
practice 18
pressi@@ 18
profes@@ 18
ptive 18
pyr@@ 18
quer@@ 18
raceae 18
rail 18
railroad 18
rain@@ 18
ral@@ 18
raw 18
read@@ 18
res 18
return 18
roast 18
role 18
rose@@ 18
rys 18
sagit@@ 18
salic@@ 18
sativa 18
satur@@ 18
sauria 18
scientist 18
scom@@ 18
scra@@ 18
series 18
sheep@@ 18
shoulder 18
sky@@ 18
smear 18
spaniel 18
spas@@ 18
spike 18
stamp 18
stell@@ 18
stit@@ 18
stop@@ 18
stration 18
stroph@@ 18
talk 18
taxus 18
team 18
teria 18
tering 18
terri@@ 18
thyro@@ 18
toilet 18
toma 18
tour 18
towel 18
tress 18
trop@@ 18
tyran@@ 18
uba 18
ude 18
unding 18
usti@@ 18
val 18
velo@@ 18
vio@@ 18
vis 18
vy 18
walking 18
web 18
xero@@ 18
xis 18
xy 18
yman 18
10@@ 17
agro@@ 17
ain 17
alb@@ 17
alus 17
amer 17
americ@@ 17
anesthesia 17
anga 17
ante@@ 17
artemisia 17
atten@@ 17
aure@@ 17
australis 17
auto 17
azo@@ 17
bak@@ 17
barbar@@ 17
basic 17
bast@@ 17
bble 17
bel 17
biology 17
break@@ 17
bud 17
builder 17
caes@@ 17
canal 17
cand@@ 17
cardio@@ 17
carriage 17
cattle 17
cebus 17
celi@@ 17
centr@@ 17
chat@@ 17
child@@ 17
chim@@ 17
china 17
christian 17
ciner@@ 17
clinical 17
coast 17
colon@@ 17
committee 17
cordi@@ 17
coronary 17
cosmo@@ 17
count 17
crataegus 17
cricket 17
cutter 17
dag@@ 17
ddle 17
defence 17
deficiency 17
dermat@@ 17
devil's 17
dick@@ 17
dive 17
dw@@ 17
echin@@ 17
ef 17
eidae 17
elessness 17
eline 17
eling 17
embo@@ 17
expense 17
explosive 17
extra@@ 17
failure 17
felis 17
fence 17
fes@@ 17
five 17
fixed 17
fold 17
fourth 17
fracture 17
fraxinus 17
fringed 17
gale 17
genic 17
gery 17
glossum 17
gno@@ 17
goods 17
grain 17
grin@@ 17
gru@@ 17
hammer 17
hellebor@@ 17
hemlock 17
home@@ 17
hydri@@ 17
ick@@ 17
idity 17
ight 17
illary 17
investment 17
ishing 17
ishment 17
istic 17
itor 17
japonica 17
kit 17
knee 17
knowledge 17
lav@@ 17
lid 17
linear 17
ling@@ 17
lip@@ 17
lonicera 17
lord 17
losa 17
lox@@ 17
lym@@ 17
macy 17
manship 17
marigold 17
masto@@ 17
matri@@ 17
may 17
men 17
minute 17
mod@@ 17
moment 17
mug@@ 17
multiple 17
nations 17
net@@ 17
network 17
nid@@ 17
noo@@ 17
occidentalis 17
ona 17
onian 17
oz@@ 17
pachy@@ 17
pass 17
pear 17
pez@@ 17
philo@@ 17
phosphate 17
poisoning 17
pond 17
pork 17
prehen@@ 17
press@@ 17
program@@ 17
projection 17
queen 17
rank 17
reading 17
rela@@ 17
respon@@ 17
ress 17
riding 17
rifle 17
ropo@@ 17
ros@@ 17
rough 17
sensation 17
shift 17
shooting 17
ske@@ 17
smut 17
society 17
sole@@ 17
solid 17
son's 17
sparrow 17
sports 17
stal 17
stance 17
stap@@ 17
stig@@ 17
stomus 17
striped 17
struc@@ 17
sucker 17
sunflower 17
surve@@ 17
swallow 17
t's 17
tat@@ 17
tata 17
teacher 17
tech@@ 17
tel@@ 17
temperature 17
tension 17
terer 17
texas 17
thu@@ 17
tip 17
toe 17
tonic 17
touch 17
tram@@ 17
try 17
try@@ 17
tumor 17
tz@@ 17
uk@@ 17
ul 17
ume 17
universal 17
ural 17
urer 17
vaccinium 17
ves 17
walker 17
warbler 17
will 17
won@@ 17
5@@ 16
absolute 16
acum 16
adju@@ 16
advis@@ 16
aeth@@ 16
ai@@ 16
albi@@ 16
allis 16
alphabet 16
ame 16
andro@@ 16
anian 16
arc 16
arctos 16
arter@@ 16
artificial 16
asplenium 16
ativeness 16
aut@@ 16
automobile 16
ball@@ 16
barrel 16
barrier 16
basketball 16
bearer 16
bian 16
bill@@ 16
bird's 16
boun@@ 16
bowl 16
breast 16
brun@@ 16
buck 16
bug@@ 16
bur 16
burn 16
canada 16
centri@@ 16
chart 16
chess 16
cker 16
clerk 16
club@@ 16
coff@@ 16
coil 16
college 16
coma 16
conserv@@ 16
consul@@ 16
conve@@ 16
corpor@@ 16
corporation 16
cr@@ 16
craft 16
cranial 16
crime 16
crow@@ 16
cule 16
curve 16
dark 16
dding 16
dealer 16
deep 16
deity 16
del 16
demo@@ 16
dency 16
dew 16
diaceae 16
diff@@ 16
dill@@ 16
display 16
district 16
dragon 16
draw@@ 16
drum@@ 16
dryopteris 16
due 16
easter 16
eating 16
een 16
efulness 16
ei 16
embry@@ 16
emon@@ 16
ensi@@ 16
eridae 16
escens 16
esi@@ 16
esthe@@ 16
etaceae 16
etri@@ 16
eyed 16
faction 16
fam@@ 16
fav@@ 16
feast 16
fee 16
finder 16
fist@@ 16
flagell@@ 16
flux 16
fon@@ 16
fox@@ 16
frag@@ 16
gage 16
gene@@ 16
gentiana 16
geon 16
ges@@ 16
ginger 16
glabra 16
god 16
gold@@ 16
gr@@ 16
gradu@@ 16
guer@@ 16
had@@ 16
hang@@ 16
hap@@ 16
hare 16
hear@@ 16
hell@@ 16
herpes 16
hing@@ 16
hitter 16
hockey 16
hospital 16
hous@@ 16
housing 16
hud@@ 16
human@@ 16
hydroxy@@ 16
ididae 16
ilis 16
ility 16
immune 16
ino 16
ipomoea 16
iro@@ 16
island 16
ith 16
ivy 16
jor@@ 16
justice 16
kingdom 16
kur@@ 16
lamb 16
lander 16
lathyrus 16
lay 16
layer 16
lepido@@ 16
license 16
lift 16
lingu@@ 16
live 16
loop 16
loss 16
maid 16
malac@@ 16
map 16
margin@@ 16
mask 16
matidae 16
mean 16
medic@@ 16
metal@@ 16
methyl 16
midae 16
moor@@ 16
morel 16
mud 16
naceae 16
ni 16
nio@@ 16
obia 16
obo@@ 16
onium 16
opera 16
ophio@@ 16
ophorus 16
ophyceae 16
opia 16
opsi@@ 16
orph@@ 16
orrhea 16
osine 16
ost@@ 16
oxid@@ 16
page 16
parth@@ 16
pathy 16
peach 16
pear@@ 16
pee 16
pepper@@ 16
pher@@ 16
phyte 16
pitcher 16
plas@@ 16
plex@@ 16
plut@@ 16
pod@@ 16
poker 16
poplar 16
porus 16
positive 16
priv@@ 16
profit 16
prun@@ 16
pulmonary 16
pyri@@ 16
radar 16
raff@@ 16
railway 16
ran 16
refle@@ 16
rel@@ 16
resistance 16
revenue 16
rhodo@@ 16
rin 16
rina 16
rna 16
robin 16
sag@@ 16
salv@@ 16
sav@@ 16
savings 16
scho@@ 16
sclerosis 16
senna 16
separ@@ 16
shire 16
shirt 16
shrimp 16
sigh@@ 16
silic@@ 16
sit@@ 16
skin@@ 16
sphaer@@ 16
spleenwort 16
sporidia 16
ssum 16
stam@@ 16
statement 16
stati@@ 16
steno@@ 16
stinking 16
stream 16
stris 16
student 16
sunday 16
tability 16
telescope 16
tere@@ 16
termin@@ 16
than@@ 16
therap@@ 16
thing 16
thought 16
thum@@ 16
tice 16
tification 16
tioner 16
tox@@ 16
travel 16
troph@@ 16
turn@@ 16
tympan@@ 16
uation 16
uch 16
ulum 16
uma 16
un 16
uter@@ 16
vascular 16
verb 16
vertebr@@ 16
vetch 16
vulgare 16
walnut 16
whis@@ 16
wis@@ 16
with@@ 16
writer 16
zygo@@ 16
/@@ 15
9@@ 15
abies 15
acetate 15
acity 15
adver@@ 15
agen@@ 15
album 15
alkal@@ 15
anatomy 15
anch@@ 15
anese 15
antia 15
aor@@ 15
apis 15
appen@@ 15
appli@@ 15
archae@@ 15
aring 15
arium 15
asiatic 15
ataceae 15
attorney 15
auc@@ 15
aug@@ 15
author@@ 15
autom@@ 15
axe 15
ay 15
bad 15
bad@@ 15
balaen@@ 15
bandage 15
bber 15
bber@@ 15
bells 15
benefit 15
binary 15
biological 15
biscuit 15
blueberry 15
bolt 15
bor 15
botry@@ 15
box@@ 15
brachi@@ 15
bronze 15
bru@@ 15
butt 15
campaign 15
canadian 15
cans 15
capacity 15
cardi@@ 15
cartridge 15
caryo@@ 15
cathar@@ 15
celestial 15
cerco@@ 15
channel 15
chiton 15
chol@@ 15
chrome 15
circum@@ 15
cision 15
clar@@ 15
clause 15
clay 15
clim@@ 15
coll@@ 15
commis@@ 15
congress 15
copy 15
corps 15
cortex 15
covering 15
creeper 15
crow 15
cten@@ 15
cubic 15
cularia 15
culation 15
culus 15
cyon 15
dancer 15
deal 15
deca@@ 15
dela@@ 15
dence 15
deposit 15
depression 15
desi@@ 15
diap@@ 15
dicot 15
din 15
director 15
dogwood 15
domes@@ 15
dye 15
dynam@@ 15
dynamics 15
ection 15
eder 15
edible 15
eel 15
elec@@ 15
eleph@@ 15
eler 15
eme 15
emission 15
entary 15
ern@@ 15
ership 15
esthesia 15
ethyl 15
etum 15
evergreen 15
experim@@ 15
eye@@ 15
fag@@ 15
fare 15
fas@@ 15
feed 15
ferti@@ 15
fia 15
fiel@@ 15
final 15
floating 15
fore 15
from 15
frontal 15
fter 15
fting 15
galvan@@ 15
gau@@ 15
gentian@@ 15
geny 15
glory 15
graph@@ 15
gur@@ 15
hack@@ 15
handle 15
hazel 15
hepati@@ 15
hes@@ 15
honey@@ 15
hotel 15
hygrophorus 15
hypericum 15
ido@@ 15
if@@ 15
ight@@ 15
ign@@ 15
ilidae 15
immunity 15
income 15
intro@@ 15
isi@@ 15
itch 15
iza 15
ject 15
jes@@ 15
kie 15
kitchen 15
kout 15
ks@@ 15
ku 15
lac 15
lasi@@ 15
later@@ 15
leag@@ 15
lilium 15
llus 15
lobe 15
log 15
lou@@ 15
lub@@ 15
lung 15
lux@@ 15
management 15
mar 15
mari@@ 15
maritima 15
marmo@@ 15
mary 15
mast 15
mast@@ 15
mation 15
max@@ 15
mem@@ 15
methy@@ 15
mineral 15
minim@@ 15
modi@@ 15
mosa 15
muc@@ 15
myelo@@ 15
nab@@ 15
nasal 15
neigh@@ 15
nightshade 15
nium 15
odor@@ 15
ody@@ 15
omele@@ 15
ometri@@ 15
oner 15
operator 15
ophor@@ 15
ophyte 15
optery@@ 15
optic 15
oregon 15
organisation 15
ornitho@@ 15
osaurus 15
ostrac@@ 15
osum 15
our 15
paral@@ 15
park 15
path 15
pati@@ 15
pend@@ 15
persi@@ 15
phenomenon 15
phili@@ 15
pion 15
pir@@ 15
plug 15
pool 15
popul@@ 15
pped 15
pressor 15
proof 15
pyram@@ 15
quantity 15
quarters 15
quir@@ 15
rax 15
reactor 15
reference 15
refrac@@ 15
region 15
regular 15
retin@@ 15
reverse 15
rima 15
road@@ 15
rou@@ 15
rut@@ 15
salvia 15
sandwich 15
sauro@@ 15
scand@@ 15
secret 15
sent@@ 15
shan@@ 15
shel@@ 15
short@@ 15
shrew 15
shut@@ 15
sky 15
slave 15
slu@@ 15
snap 15
sne@@ 15
software 15
sole 15
som 15
spectro@@ 15
sperm 15
spit@@ 15
sponge 15
spre@@ 15
ssa 15
strike 15
strum 15
sut@@ 15
swan 15
tana 15
tas@@ 15
terrorism 15
theatre 15
thec@@ 15
thio@@ 15
tilus 15
tiness 15
tionism 15
title 15
tom 15
treas@@ 15
treasury 15
trip 15
ult 15
urist 15
ursus 15
uting 15
velvet 15
vention 15
vertic@@ 15
vertical 15
virginiana 15
visco@@ 15
vitis 15
wee@@ 15
wheat@@ 15
witch 15
wren 15
wy@@ 15
xen@@ 15
xylo@@ 15
zen 15
11@@ 14
aba 14
abstrac@@ 14
aby@@ 14
acacia 14
academic 14
acia 14
acris 14
adap@@ 14
address 14
af 14
afri@@ 14
agar@@ 14
aine 14
alea 14
aller@@ 14
alligator 14
alveolar 14
amer@@ 14
ammon@@ 14
anab@@ 14
anaesthesia 14
anas 14
ane@@ 14
anidae 14
any 14
apter@@ 14
arenaria 14
assembly 14
astrum 14
ations 14
avo@@ 14
aw 14
bah@@ 14
bank@@ 14
bearing 14
bergia 14
betula 14
birthday 14
block@@ 14
boa 14
bodi@@ 14
bubble 14
bula 14
bund@@ 14
burg 14
buttercup 14
cali@@ 14
campanula 14
cargo 14
carpo@@ 14
cata 14
catho@@ 14
certificate 14
chondri@@ 14
chromo@@ 14
chronic 14
cinia 14
clan@@ 14
coag@@ 14
cocktail 14
come 14
communis 14
conjunc@@ 14
conservation 14
copper 14
correc@@ 14
cotton@@ 14
cruci@@ 14
cuc@@ 14
cucum@@ 14
curtain 14
cyte 14
dactylus 14
defect 14
density 14
deoxy@@ 14
depend@@ 14
derm 14
desk 14
dichro@@ 14
dictionary 14
dimen@@ 14
diving 14
dontidae 14
downy 14
dys@@ 14
eberry 14
economy 14
edema 14
eld 14
ellidae 14
enidae 14
enne 14
ennial 14
ential 14
eper 14
equus 14
escul@@ 14
esti@@ 14
ethane 14
eve 14
evening 14
exter@@ 14
fe 14
fellow 14
ficus 14
fight 14
finch 14
fine 14
fing 14
flame 14
flexi@@ 14
florida 14
font 14
fool@@ 14
ford 14
fritillaria 14
fuc@@ 14
gan 14
geal 14
genital 14
ggle 14
gic 14
glandu@@ 14
glomer@@ 14
gonia 14
gorilla 14
grandiflora 14
gross 14
hak@@ 14
harmon@@ 14
haw 14
hedge 14
hell 14
herb 14
hibition 14
hip 14
histor@@ 14
hub@@ 14
hygro@@ 14
hylo@@ 14
hyster@@ 14
icaceae 14
idence 14
idia 14
idian 14
ifer@@ 14
ille 14
illing 14
incen@@ 14
indigo 14
inhibitor 14
ini@@ 14
interior 14
irri@@ 14
irus 14
issue 14
izing 14
jar 14
jelly 14
kan@@ 14
kat@@ 14
ker's 14
kiss 14
labi@@ 14
lacto@@ 14
lago 14
lah 14
lamb@@ 14
lamin@@ 14
lan 14
lap 14
legs 14
lette 14
lican 14
lie 14
limit@@ 14
linguistic 14
loc@@ 14
locust 14
malignant 14
march@@ 14
mass@@ 14
matic 14
melli@@ 14
meria 14
mination 14
mind 14
mold 14
month 14
movie 14
mum@@ 14
muscular 14
news@@ 14
nico@@ 14
niger 14
nigri@@ 14
ocactus 14
ocarp 14
ocephalus 14
ogram 14
oic 14
oidea 14
omet@@ 14
opel@@ 14
ophile 14
opla@@ 14
option 14
opy@@ 14
ority 14
orship 14
ortho@@ 14
oscopy 14
oy@@ 14
ozo@@ 14
pancre@@ 14
pand@@ 14
pants 14
parti@@ 14
partial 14
patent 14
pattern 14
pearl 14
perfect 14
petty 14
philus 14
phrase 14
phyll@@ 14
piness 14
plague 14
plain 14
plex 14
plu@@ 14
pneum@@ 14
po 14
poor 14
pop 14
porphy@@ 14
prat@@ 14
preci@@ 14
present 14
pression 14
prince 14
production 14
progressive 14
projec@@ 14
ptor 14
pty@@ 14
rati@@ 14
rating 14
rau@@ 14
reas@@ 14
rectus 14
reduc@@ 14
regression 14
relative 14
relativity 14
rele@@ 14
reli@@ 14
rhab@@ 14
rhe@@ 14
ribbon 14
rich@@ 14
rosis 14
routine 14
rye 14
salt@@ 14
sauridae 14
scap@@ 14
scopy 14
scut@@ 14
selec@@ 14
sensory 14
sentence 14
session 14
sever@@ 14
sey 14
shield 14
sibility 14
sigmo@@ 14
sili@@ 14
skate 14
sleeping 14
snake@@ 14
snap@@ 14
sno@@ 14
sore 14
sorrel 14
south@@ 14
sphen@@ 14
sphere 14
spoon 14
spring@@ 14
standing 14
start 14
steria 14
sty 14
subsi@@ 14
suspen@@ 14
swi@@ 14
syl@@ 14
symbo@@ 14
syno@@ 14
taceae 14
taker 14
technology 14
tha 14
theo@@ 14
throw 14
thrush 14
tionary 14
tiousness 14
torial 14
traction 14
tractor 14
trail 14
travel@@ 14
trom@@ 14
tto 14
tul@@ 14
uch@@ 14
ulate 14
uli 14
ull 14
undo 14
ung 14
usion 14
version 14
vessel 14
vial 14
vice 14
vin 14
viver@@ 14
wan@@ 14
wart 14
wast@@ 14
whi@@ 14
whiskey 14
wife 14
works 14
wra@@ 14
written 14
yco@@ 14
yro@@ 14
aber@@ 13
accelerator 13
accessory 13
accounting 13
acry@@ 13
ag 13
agrostis 13
algia 13
alis@@ 13
alle@@ 13
allu@@ 13
alnus 13
amic 13
analy@@ 13
anci@@ 13
angel 13
anis@@ 13
anne@@ 13
ano 13
anomal@@ 13
anther@@ 13
anthropus 13
ape 13
aphid 13
appar@@ 13
application 13
arbit@@ 13
archy 13
ardia 13
arin 13
arsen@@ 13
arvensis 13
asparagus 13
aspen 13
assia 13
aster@@ 13
atar@@ 13
athy@@ 13
ati 13
ationist 13
augu@@ 13
aur@@ 13
auxiliary 13
ave 13
azine 13
balloon 13
bam@@ 13
banded 13
being 13
bend 13
bicycle 13
bid 13
bird@@ 13
bli@@ 13
blon@@ 13
bola 13
boom 13
bracket 13
bram@@ 13
branch 13
branchio@@ 13
breach 13
bread@@ 13
breaking 13
breathing 13
brick@@ 13
bufo 13
bulb 13
cabinet 13
calam@@ 13
californic@@ 13
campe@@ 13
canis 13
cannab@@ 13
cardin@@ 13
carolina 13
carp 13
catholic 13
ced@@ 13
cedrus 13
cellulose 13
cervical 13
chance 13
chilo@@ 13
christ@@ 13
ci 13
cia 13
cis@@ 13
civi@@ 13
claim 13
classi@@ 13
classical 13
clean@@ 13
coccy@@ 13
cognitive 13
colic 13
collection 13
collector 13
colub@@ 13
comb 13
comfor@@ 13
compass 13
condi@@ 13
construc@@ 13
converter 13
cool@@ 13
corpus 13
corru@@ 13
crimin@@ 13
crocodi@@ 13
cros@@ 13
custom@@ 13
cutting 13
cyn@@ 13
cyprin@@ 13
dactylo@@ 13
ddy 13
decor@@ 13
desmo@@ 13
devi@@ 13
devil@@ 13
dg@@ 13
differential 13
dii 13
diness 13
dion 13
dirty 13
discharge 13
dissi@@ 13
dna 13
dontia 13
dop@@ 13
dram@@ 13
early 13
editor 13
ega 13
egre@@ 13
eh@@ 13
eland 13
elephant 13
ember 13
emin@@ 13
employment 13
enta 13
entom@@ 13
ephemer@@ 13
epigast@@ 13
erec@@ 13
esophag@@ 13
eum@@ 13
euph@@ 13
europa@@ 13
exist@@ 13
expedi@@ 13
extension 13
facility 13
fact 13
fibre 13
filter 13
firm 13
flash@@ 13
foeti@@ 13
forest 13
formic@@ 13
fraud 13
fru@@ 13
func@@ 13
furnace 13
fut@@ 13
garden@@ 13
gel@@ 13
gens 13
goat@@ 13
goth@@ 13
grandi@@ 13
granulo@@ 13
haemato@@ 13
hairy 13
haz@@ 13
heating 13
heavy 13
history 13
hit 13
honor 13
hyacinth 13
hydraulic 13
ican 13
inging 13
inian 13
inoc@@ 13
insi@@ 13
instal@@ 13
interpre@@ 13
intra@@ 13
io 13
jub@@ 13
judicial 13
junior 13
kho@@ 13
killer 13
kir@@ 13
kling 13
knoc@@ 13
labial 13
laev@@ 13
lag@@ 13
lagin@@ 13
lake 13
laun@@ 13
laz@@ 13
least 13
leather@@ 13
lee 13
lesson 13
lieutenant 13
link 13
lumber@@ 13
lynx 13
lysi@@ 13
lysis 13
mackerel 13
magic 13
magnoli@@ 13
mas 13
match@@ 13
mathematical 13
mechanical 13
medal 13
melano@@ 13
memor@@ 13
mentary 13
merchant 13
metho@@ 13
metric 13
milkweed 13
mim@@ 13
mium 13
modern 13
molo@@ 13
mongo@@ 13
monitor 13
muco@@ 13
musk 13
nation@@ 13
navy 13
neck@@ 13
nervous 13
neut@@ 13
nickel 13
noise 13
nomin@@ 13
nop@@ 13
normal@@ 13
nucle@@ 13
obe 13
ocean@@ 13
octo@@ 13
odacty@@ 13
odle 13
oil@@ 13
ological 13
olym@@ 13
ome@@ 13
ometric 13
omorph@@ 13
onus 13
oon 13
ophobia 13
orthop@@ 13
osoma 13
pain 13
paleo@@ 13
palli@@ 13
passer@@ 13
patch 13
pedic@@ 13
pencil 13
penia 13
penn@@ 13
perception 13
personnel 13
phaga 13
phalang@@ 13
pharyn@@ 13
philosoph@@ 13
pholiota 13
phora 13
phth@@ 13
pi 13
pic 13
pilo@@ 13
pis 13
pithecus 13
pleasure 13
podocarpus 13
poec@@ 13
polygon@@ 13
populus 13
possession 13
poster 13
potamo@@ 13
pregnancy 13
princi@@ 13
prob@@ 13
prom@@ 13
propri@@ 13
pyc@@ 13
pyre@@ 13
question 13
quet@@ 13
quil@@ 13
raft 13
rana 13
ranunculus 13
rar@@ 13
renal 13
rent 13
representation 13
retirement 13
revol@@ 13
rh 13
rheum@@ 13
righ@@ 13
rix 13
rust 13
s. 13
sack 13
san 13
sausage 13
scription 13
scur@@ 13
scus 13
search 13
seness 13
sera 13
shaft 13
shower 13
sick 13
sid 13
sida 13
sioner 13
slide 13
small@@ 13
snu@@ 13
soap@@ 13
sock 13
soldier 13
source 13
spac@@ 13
spice 13
spin 13
spla@@ 13
squir@@ 13
st. 13
stabili@@ 13
stachys 13
staphylo@@ 13
starting 13
stomach 13
stool 13
supply 13
swiss 13
tad@@ 13
tai 13
taking 13
target 13
tari@@ 13
teas@@ 13
tel 13
tender@@ 13
terminal 13
tfulness 13
thamnus 13
tian 13
tid 13
timate 13
tionality 13
titan@@ 13
tol@@ 13
toy 13
transfer 13
tre 13
triangle 13
triple 13
twel@@ 13
twin 13
uli@@ 13
ultra@@ 13
uration 13
usal 13
vaccin@@ 13
vacuum 13
variable 13
vector 13
veller 13
vic 13
viri@@ 13
vocal 13
vom@@ 13
voting 13
warning 13
wasp 13
web@@ 13
whor@@ 13
wic@@ 13
wire@@ 13
witness 13
yor@@ 13
yucca 13
zel 13
zinc 13
zoan 13
abdominal 12
abortion 12
absorption 12
abuse 12
acetic 12
aceus 12
aching 12
acidae 12
acon@@ 12
ades 12
adult 12
aemia 12
aes@@ 12
aire 12
alep@@ 12
alg@@ 12
alth@@ 12
alum 12
amne@@ 12
amp@@ 12
anap@@ 12
anchor 12
angelica 12
angular 12
ante 12
antha 12
apar@@ 12
apor@@ 12
apparatus 12
appe@@ 12
aris@@ 12
arrow 12
arrow@@ 12
article 12
articulatio 12
artist 12
asci@@ 12
asclepias 12
assistant 12
associ@@ 12
asy 12
aticus 12
austr@@ 12
aver 12
aving 12
aya 12
ayan 12
balm 12
balsam@@ 12
bap@@ 12
baptist 12
barium 12
barn 12
basin 12
bastard 12
bathy@@ 12
beggar 12
bermuda 12
bitter@@ 12
bius 12
blow 12
blow@@ 12
boar@@ 12
bombyc@@ 12
borealis 12
bowling 12
broker 12
brow@@ 12
brus@@ 12
buffer 12
buoy 12
burner 12
caceae 12
caff@@ 12
californica 12
calo@@ 12
canary 12
candle@@ 12
caper 12
carbonate 12
carchar@@ 12
cardinal 12
carpa 12
carya 12
cas 12
casting 12
catfish 12
cec@@ 12
cel 12
chamaele@@ 12
characteristic 12
chenopodium 12
chilean 12
chthys 12
closet 12
clusion 12
cod@@ 12
cogn@@ 12
col 12
cole@@ 12
collar 12
collin@@ 12
combin@@ 12
commerce 12
compact 12
compan@@ 12
compar@@ 12
composi@@ 12
composition 12
condition@@ 12
congre@@ 12
coon 12
core 12
cori@@ 12
crack 12
cracker 12
cram@@ 12
creation 12
crepe 12
crested 12
crew 12
crop 12
crotalus 12
crystal@@ 12
cue 12
cupressus 12
cyanide 12
cyber@@ 12
cypripedium 12
dant 12
dat@@ 12
database 12
dead@@ 12
descen@@ 12
descri@@ 12
design@@ 12
determin@@ 12
diagno@@ 12
dication 12
dinidae 12
dinosaur 12
divin@@ 12
doctrine 12
dougla@@ 12
drip 12
dur@@ 12
dystrophy 12
eaceae 12
ears 12
eas@@ 12
ectes 12
effec@@ 12
eigh@@ 12
ein 12
election 12
electricity 12
ellip@@ 12
employ@@ 12
encephalon 12
ending 12
enzyme 12
equation 12
equilibrium 12
eras@@ 12
esox 12
estion 12
etales 12
ever 12
everlasting 12
evidence 12
factory 12
fatty 12
feeding 12
ference 12
fighter 12
finance 12
fix 12
flounder 12
focal 12
former 12
foster 12
garbage 12
gasoline 12
generation 12
genit@@ 12
gie 12
gii 12
globe 12
glossus 12
glu@@ 12
gnath@@ 12
gou@@ 12
gourd 12
gown 12
grave@@ 12
gravity 12
grey@@ 12
habit@@ 12
hang 12
heel 12
helo@@ 12
hemato@@ 12
herring 12
hid@@ 12
hil@@ 12
him@@ 12
holiday 12
horsetail 12
hunter 12
hyal@@ 12
iales 12
ianum 12
icity 12
icle 12
iculata 12
identification 12
ider 12
ience 12
igh 12
iliac 12
ilus 12
indirect 12
induc@@ 12
inflam@@ 12
ingu@@ 12
instruction 12
inventory 12
iodo@@ 12
ioides 12
iology 12
iosa 12
ira@@ 12
iry 12
isher 12
iss@@ 12
ito 12
itter 12
ivory 12
jag@@ 12
jav@@ 12
jewel@@ 12
ji 12
john's 12
june 12
kers 12
kis@@ 12
kite 12
legia 12
legis@@ 12
len 12
leonto@@ 12
lical 12
lling 12
local@@ 12
lostom@@ 12
lus@@ 12
mahogany 12
malus 12
market@@ 12
measuring 12
mechanism 12
meteor@@ 12
mexic@@ 12
milk@@ 12
mit 12
monoc@@ 12
mosquito 12
mother@@ 12
mou@@ 12
moul@@ 12
mum 12
musi@@ 12
mutual 12
nag@@ 12
narc@@ 12
nel@@ 12
newspaper 12
north@@ 12
nosed 12
nucleus 12
nur@@ 12
obacter@@ 12
observ@@ 12
og@@ 12
oligo@@ 12
olysis 12
oman@@ 12
omum 12
omycota 12
on's 12
oni 12
ood 12
ood@@ 12
ook 12
ophilia 12
ophilus 12
opidae 12
opinion 12
order@@ 12
orhynchus 12
orum 12
osphere 12
osteo@@ 12
packing 12
painted 12
painting 12
pancake 12
panel 12
paper@@ 12
paradi@@ 12
paria 12
parlor 12
parus 12
past 12
path@@ 12
patrol 12
pau@@ 12
paw 12
pedal 12
penet@@ 12
perch 12
phan@@ 12
phaseolus 12
photom@@ 12
phyceae 12
phyllaceae 12
physis 12
pia 12
picea 12
picker@@ 12
pier 12
pig 12
piper@@ 12
pium 12
plagi@@ 12
pling 12
plus 12
pneumo@@ 12
polar 12
poll 12
potential 12
pox 12
ppy 12
precipit@@ 12
pressive 12
probosc@@ 12
promis@@ 12
propor@@ 12
pteris 12
pulse 12
purpurea 12
push 12
put 12
pylor@@ 12
pyrrh@@ 12
rability 12
radial 12
rang@@ 12
rated 12
raz@@ 12
recording 12
recur@@ 12
reflec@@ 12
remo@@ 12
reproductive 12
review 12
rhombo@@ 12
rhyn@@ 12
rian 12
rights 12
ritis 12
robu@@ 12
rocky 12
rug 12
rul@@ 12
rying 12
sac 12
salmon@@ 12
sanc@@ 12
sarcoma 12
sary 12
satellite 12
saxifrage 12
sca@@ 12
scab@@ 12
scen@@ 12
schizophrenia 12
scrub 12
scy@@ 12
seas@@ 12
seed@@ 12
seman@@ 12
senecio 12
serratus 12
ses 12
shepher@@ 12
shooter 12
sickle 12
side@@ 12
silky 12
sional 12
skirt 12
skunk 12
slime 12
smar@@ 12
smi@@ 12
smith 12
some 12
spher@@ 12
spiny 12
spoon@@ 12
spora 12
spur 12
stall 12
stand@@ 12
stat 12
static 12
ste 12
stera 12
stew 12
strateg@@ 12
stress 12
struthi@@ 12
submarine 12
sulfate 12
superfamily 12
surgeon 12
surgical 12
swimming 12
tach@@ 12
tain 12
tainment 12
tane@@ 12
tang@@ 12
tarian 12
taxis 12
teres 12
termes 12
tern 12
thelypteris 12
theria 12
thermal 12
thia 12
thm 12
thom@@ 12
tiaceae 12
tine@@ 12
tious 12
tis@@ 12
tish@@ 12
tite 12
tization 12
toria 12
tos 12
tosis 12
town@@ 12
toxic 12
toxico@@ 12
trading 12
treatment 12
trefoil 12
trench 12
tria 12
trillium 12
trunk 12
ts@@ 12
turnip 12
turus 12
ud 12
ull@@ 12
umbrella 12
uran@@ 12
urban 12
urinary 12
urs 12
utility 12
valley 12
vaso@@ 12
venous 12
veronica 12
vertebral 12
veter@@ 12
vide@@ 12
vie@@ 12
vil 12
virginica 12
washing 12
well@@ 12
welsh 12
whip 12
witch@@ 12
wler 12
wonder 12
worthiness 12
writ 12
xa 12
xeno@@ 12
xer@@ 12
ygo@@ 12
ylon 12
young 12
zebra 12
zig@@ 12
zin@@ 12
zyg@@ 12
abili@@ 11
absor@@ 11
accept@@ 11
acean 11
aci@@ 11
acid@@ 11
adam@@ 11
adhe@@ 11
agon 11
ally 11
alog 11
aman 11
ami 11
amorph@@ 11
amygdal@@ 11
analyst 11
anast@@ 11
andre@@ 11
anem@@ 11
anni@@ 11
anno@@ 11
anthem@@ 11
anthropology 11
anxiety 11
aper 11
apri@@ 11
aqui@@ 11
arach@@ 11
arctic 11
argy@@ 11
ariness 11
arist 11
armill@@ 11
aryn@@ 11
asp@@ 11
ateral 11
aticum 11
atin 11
atrix 11
aum@@ 11
auranti@@ 11
auricul@@ 11
authority 11
background 11
ballet 11
ballistic 11
barley 11
barn@@ 11
bay@@ 11
beef@@ 11
bellflower 11
bibli@@ 11
bili@@ 11
billed 11
biotic 11
bittersweet 11
blasto@@ 11
blin@@ 11
boat@@ 11
boli@@ 11
bomb@@ 11
brace 11
branchia 11
breakfast 11
breasted 11
breech@@ 11
brew 11
buff@@ 11
bun 11
buster 11
caesalpinia 11
calab@@ 11
calamus 11
calculus 11
cannon 11
cant 11
canthus 11
caprimul@@ 11
carbo@@ 11
carbon@@ 11
catcher 11
categ@@ 11
catus 11
cd 11
ced 11
cele@@ 11
centaurea 11
chamomile 11
charadri@@ 11
chat 11
chee 11
chella 11
chen@@ 11
chic@@ 11
chig@@ 11
chiro@@ 11
chit@@ 11
chium 11
chman 11
choke 11
chori@@ 11
christ 11
chytri@@ 11
cigarette 11
cirsium 11
clef 11
close 11
colon 11
colored 11
columbi@@ 11
column 11
comedy 11
conduc@@ 11
condy@@ 11
confeder@@ 11
conference 11
contem@@ 11
continental 11
contro@@ 11
coph@@ 11
copy@@ 11
corpus@@ 11
cortinarius 11
cot@@ 11
crossing 11
crown@@ 11
ct 11
curv@@ 11
cyri@@ 11
dedness 11
defen@@ 11
derer 11
dger 11
dining 11
dioxide 11
dip 11
dipter@@ 11
disco@@ 11
distance 11
distin@@ 11
dition 11
div@@ 11
dler 11
doo@@ 11
dox@@ 11
ech 11
ect 11
eczema 11
edge 11
elae@@ 11
ellia 11
en's 11
ens@@ 11
enter 11
entrance 11
epid@@ 11
erie 11
erigeron 11
eship 11
ess@@ 11
ets 11
etta 11
eucli@@ 11
euglen@@ 11
expan@@ 11
expert 11
expression 11
famili@@ 11
feder@@ 11
femor@@ 11
ffin 11
filing 11
flea 11
flood 11
foet@@ 11
footed 11
formal@@ 11
fossi@@ 11
four@@ 11
friend@@ 11
fund@@ 11
funeral 11
future 11
gab@@ 11
gall 11
gamma 11
gamy 11
garment 11
geni@@ 11
gging 11
gho@@ 11
gib@@ 11
gift 11
gobi@@ 11
god@@ 11
grace 11
guide 11
gular 11
guy 11
gyrus 11
headed 11
heartedness 11
heater 11
heather 11
heim@@ 11
helmet 11
hemorrhagic 11
hing 11
hoe 11
homo 11
hop@@ 11
hunt 11
hybri@@ 11
hydra@@ 11
hydrangea 11
hynchus 11
ianus 11
iber@@ 11
icar@@ 11
icism 11
iculus 11
igni@@ 11
illin 11
imag@@ 11
ime 11
imeter 11
imperial 11
incom@@ 11
incre@@ 11
induction 11
inemia 11
inherit@@ 11
ini 11
institution 11
intestinal 11
invol@@ 11
iny 11
iosis 11
issus 11
ition 11
itys 11
jab@@ 11
jan@@ 11
jar@@ 11
jazz 11
jin@@ 11
join@@ 11
jour@@ 11
juniperus 11
juvenile 11
keeping 11
kerat@@ 11
kid@@ 11
kness 11
knight 11
laboratory 11
lag 11
lago@@ 11
lanth@@ 11
late 11
lawn 11
lay@@ 11
leading 11
leave 11
leek 11
lepis 11
lev@@ 11
lever 11
lichen 11
lien 11
linguistics 11
lish@@ 11
literary 11
ller 11
loom 11
lov@@ 11
lunar 11
mak@@ 11
male@@ 11
manual 11
margin 11
marty@@ 11
materi@@ 11
mean@@ 11
measure@@ 11
med 11
mega@@ 11
mentha 11
ments 11
microscope 11
million 11
mindedness 11
mirabilis 11
mirror 11
mis 11
mix@@ 11
mode 11
modu@@ 11
monger 11
mor 11
mortgage 11
mous 11
mous@@ 11
nai@@ 11
naria 11
navig@@ 11
nish 11
node 11
nuisance 11
nutri@@ 11
obe@@ 11
occup@@ 11
ocele 11
ocor@@ 11
ocytic 11
oda 11
odes 11
odorata 11
ois 11
olens 11
oleracea 11
olo@@ 11
oly@@ 11
ons 11
onth 11
ophila 11
oration 11
oriented 11
orpha 11
oth@@ 11
oxalis 11
palat@@ 11
parallel 11
paras@@ 11
part@@ 11
partner 11
passi@@ 11
pector@@ 11
ped@@ 11
pelecan@@ 11
pendulum 11
penis 11
pep@@ 11
perio@@ 11
peris@@ 11
persian 11
petrol 11
phasi@@ 11
pheno@@ 11
philia 11
philosophy 11
phlox 11
phony 11
phoric 11
phren@@ 11
phro@@ 11
phthal@@ 11
phthalmus 11
pillow 11
pistol 11
pithec@@ 11
placement 11
plasma 11
plasmo@@ 11
plaster 11
plet 11
polar@@ 11
polemon@@ 11
pony 11
pore 11
porter 11
pos 11
posal 11
pple 11
prayer 11
pressant 11
prickly 11
primrose 11
prison@@ 11
privet 11
procta 11
propan@@ 11
puc@@ 11
pulsion 11
pyg@@ 11
pyth@@ 11
quail 11
quanti@@ 11
quark 11
quarter@@ 11
quick 11
quick@@ 11
racy 11
rae 11
rag 11
ragma 11
rainbow 11
refin@@ 11
rein 11
rene 11
representative 11
reptile 11
revolu@@ 11
rhag@@ 11
rham@@ 11
rhyme 11
rib@@ 11
ricket@@ 11
rier 11
roach 11
rone 11
rotary 11
roy@@ 11
satureja 11
savo@@ 11
scis@@ 11
scolo@@ 11
scomber@@ 11
score 11
scorpa@@ 11
scorpion 11
screw@@ 11
scul@@ 11
sea@@ 11
seab@@ 11
sedge 11
see 11
senger 11
senior 11
sero@@ 11
services 11
sevent@@ 11
shrike 11
sic 11
sier 11
silla 11
simul@@ 11
simum 11
siness 11
sionary 11
sitis 11
slip@@ 11
snail 11
solidago 11
sorghum 11
sp 11
spar 11
speaker 11
spinach 11
spondy@@ 11
squad 11
squee@@ 11
stemon 11
stery 11
stil@@ 11
stimulus 11
stine 11
stiness 11
stove 11
strac@@ 11
stran@@ 11
strap 11
stron@@ 11
strus 11
stuffed 11
sulfur 11
sulphate 11
sure 11
swoman 11
sylvatica 11
synchron@@ 11
tale 11
talis 11
tap 11
taste 11
tear@@ 11
teen 11
telegraph 11
temper@@ 11
tetrac@@ 11
theast 11
thinking 11
thun@@ 11
thysan@@ 11
tiana 11
tick@@ 11
tier 11
til 11
tilla 11
tinus 11
tisation 11
tit@@ 11
tivism 11
toll 11
tomus 11
total 11
tow@@ 11
tragus 11
transfer@@ 11
trash 11
tricholoma 11
trum 11
twin@@ 11
typh@@ 11
tz 11
uci@@ 11
ught 11
uity 11
ularity 11
umbell@@ 11
ument 11
umin@@ 11
undi@@ 11
urism 11
urity 11
using 11
utes 11
ution 11
vapor@@ 11
varieg@@ 11
vea 11
veal 11
veins 11
vinyl 11
volt 11
vy@@ 11
warrant 11
wax@@ 11
weapon 11
week 11
wet 11
wher@@ 11
whir@@ 11
whisky 11
wid@@ 11
wild@@ 11
winged 11
woman@@ 11
woodsia 11
word@@ 11
write 11
wron@@ 11
ws 11
yan 11
yan@@ 11
ycin 11
zealand 11
zen@@ 11
zer@@ 11
zero 11
zon@@ 11
about 10
abra@@ 10
access 10
acher 10
achi@@ 10
achro@@ 10
acidosis 10
aciousness 10
acule@@ 10
acumin@@ 10
adendron 10
adenia 10
aegy@@ 10
ager@@ 10
agglut@@ 10
agus 10
ah@@ 10
aked 10
algae 10
alge@@ 10
allus 10
alogue 10
amaranthus 10
ambi@@ 10
ambul@@ 10
amby@@ 10
amen 10
amen@@ 10
ammo@@ 10
ampere 10
amy@@ 10
anaceae 10
anal 10
angium 10
anteater 10
anth 10
anthe 10
aquatica 10
arche@@ 10
are@@ 10
argyro@@ 10
arism 10
aristolo@@ 10
arma@@ 10
armed 10
arrangement 10
arrh@@ 10
arthritis 10
asia 10
assign@@ 10
atch 10
athletic 10
atho@@ 10
atrium 10
aus@@ 10
bach@@ 10
bacteriaceae 10
badger 10
bamboo 10
ban 10
bang@@ 10
barbital 10
barga@@ 10
bath@@ 10
beat 10
beet 10
benzene 10
bic 10
bike 10
biosis 10
bir@@ 10
birth@@ 10
blanket 10
blister 10
blocker 10
bloom@@ 10
boarding 10
bombing 10
bon 10
bones 10
bonnet 10
booster 10
brain@@ 10
bration 10
brew@@ 10
brick 10
bristle@@ 10
buty@@ 10
cade 10
calochortus 10
cana 10
candle 10
capsicum 10
caval@@ 10
cave 10
cem@@ 10
cence 10
center@@ 10
centi@@ 10
cephalo@@ 10
cera 10
ceras@@ 10
ceros 10
cession 10
chau@@ 10
chelys 10
chick@@ 10
chickweed 10
chinensis 10
chop 10
chri@@ 10
chromosome 10
chrys@@ 10
chy@@ 10
cim@@ 10
cinc@@ 10
cinchona 10
cist 10
coccinea 10
cocco@@ 10
coconut 10
coe@@ 10
coin 10
com 10
combus@@ 10
coming 10
compen@@ 10
comycetes 10
concent@@ 10
concert 10
congo 10
conju@@ 10
contact 10
contrace@@ 10
coral@@ 10
cover@@ 10
credi@@ 10
cren@@ 10
crin@@ 10
cryp@@ 10
cucurbita 10
cultural 10
cycad@@ 10
cyclic 10
cygnus 10
cylinder 10
cym@@ 10
cyst@@ 10
cystic 10
daphne 10
dating 10
dation 10
days 10
dder 10
dean 10
death@@ 10
debt 10
decan@@ 10
denti@@ 10
der's 10
dera 10
dermatitis 10
detective 10
deuter@@ 10
dev@@ 10
diagram 10
dianthus 10
dica 10
diesel 10
dinar 10
dioica 10
dis 10
dolphin 10
dot 10
dra 10
drinking 10
driving 10
droom 10
eae 10
eat@@ 10
eba 10
ece 10
eding 10
educ@@ 10
edulis 10
egg@@ 10
ela 10
elan@@ 10
elegans 10
eless 10
elevator 10
elis 10
ellaceae 10
emaker 10
enforcement 10
enli@@ 10
epidemic 10
epig@@ 10
eptor 10
equisetum 10
equivalent 10
eryth@@ 10
erythrina 10
escape 10
esman 10
establish@@ 10
eupatorium 10
exam@@ 10
exposure 10
fagus 10
fati@@ 10
feather@@ 10
feed@@ 10
fib@@ 10
fibri@@ 10
firing 10
flag@@ 10
flax 10
florus 10
forces 10
fragrant 10
frat@@ 10
friend 10
fring@@ 10
frost 10
fruit@@ 10
fur 10
fuse 10
gall@@ 10
games 10
gator 10
gay 10
geor@@ 10
gera 10
geton 10
geum 10
gigante@@ 10
gill 10
ginea 10
ging@@ 10
gist 10
giving 10
gluco@@ 10
gnathus 10
goer 10
gooseberry 10
gopher 10
grandis 10
gression 10
gula 10
gyromitra 10
hamameli@@ 10
haplo@@ 10
harmonic 10
hepatitis 10
het@@ 10
highway 10
hit@@ 10
hob@@ 10
hog@@ 10
horizontal 10
hundred 10
hydroxide 10
identity 10
ideus 10
idism 10
idium 10
ier 10
illidae 10
inage 10
inales 10
inch 10
india 10
indica 10
indicator 10
indu@@ 10
inga 10
inhal@@ 10
inis 10
inism 10
insulin 10
interval 10
inverse 10
ipes 10
ird 10
itri@@ 10
ixodes 10
j 10
jay 10
jection 10
jew@@ 10
jon@@ 10
junc@@ 10
jungle 10
juniper 10
kes 10
keye 10
kil@@ 10
kle@@ 10
korean 10
kri@@ 10
lab 10
lace@@ 10
lacer@@ 10
ladies' 10
lady@@ 10
lagus 10
larch 10
latry 10
learning 10
lemming 10
leon@@ 10
leop@@ 10
lepi@@ 10
lepiota 10
lex 10
licence 10
lightning 10
limit 10
liquor 10
lith 10
loading 10
loaf 10
lobo@@ 10
locomotive 10
logale 10
loin 10
lon 10
loosestrife 10
losis 10
lupine 10
lyca@@ 10
lying 10
madagas@@ 10
magnet@@ 10
maiden 10
malpigh@@ 10
mannia 10
manufac@@ 10
maras@@ 10
mataceae 10
mature 10
mechan@@ 10
mechanics 10
mediate 10
mediterranean 10
mel 10
metre 10
microwave 10
minister 10
mixture 10
mock 10
mollus@@ 10
mood 10
moral 10
morpha 10
morpho@@ 10
mour@@ 10
mov@@ 10
moving 10
mytho@@ 10
nan@@ 10
narco@@ 10
naris 10
nature 10
nav@@ 10
nee 10
neon@@ 10
neria 10
nerv@@ 10
newton's 10
niaceae 10
nist 10
nitrate 10
nitrogen 10
nym@@ 10
oat 10
oca 10
oden@@ 10
odonto@@ 10
ody 10
oe 10
offic@@ 10
officinale 10
ogen 10
onii 10
oper 10
operations 10
ophore 10
ophosphate 10
ophy@@ 10
ophyll 10
ophytina 10
opistho@@ 10
oplasty 10
opogon 10
oring 10
orthodox 10
oryz@@ 10
osarcoma 10
osity 10
oto@@ 10
ovis 10
oxylon 10
ozoa 10
papaver 10
parasi@@ 10
parking 10
parlour 10
pas 10
passiflora 10
passive 10
paste 10
pation 10
peanut 10
pectoral 10
penny@@ 10
perce@@ 10
pericar@@ 10
periodic 10
phe 10
phis 10
phlebo@@ 10
phyton 10
pick@@ 10
pine@@ 10
pipe@@ 10
planet 10
planning 10
pleas@@ 10
plication 10
pment 10
podium 10
pogon 10
pogon@@ 10
point@@ 10
pollution 10
polo 10
pon 10
population 10
porcupine 10
portra@@ 10
pose 10
poss@@ 10
postal 10
poten@@ 10
pr@@ 10
pren@@ 10
presby@@ 10
presi@@ 10
pride 10
prime 10
prism 10
prison 10
privilege 10
pro 10
programming 10
pron@@ 10
propel@@ 10
propen@@ 10
prosop@@ 10
protec@@ 10
psida 10
psy 10
ptu@@ 10
puden@@ 10
pull 10
python 10
quartz 10
quin 10
radioactive 10
rail@@ 10
raising 10
raspberry 10
ratic 10
ratio 10
razor 10
read 10
receiver 10
recipro@@ 10
reck@@ 10
reconnaissance 10
redwood 10
relationship 10
relief 10
religion 10
ren 10
rence 10
report 10
resonance 10
respec@@ 10
ret 10
rhinoceros 10
rider 10
rio 10
rist 10
roc@@ 10
ropia 10
rue 10
sacred 10
safe 10
saff@@ 10
sail@@ 10
sampling 10
sapro@@ 10
saxifraga 10
scape 10
sch 10
scout 10
scratch 10
secu@@ 10
segre@@ 10
selen@@ 10
seller 10
sen 10
senti@@ 10
serial 10
serpent@@ 10
serum 10
shap@@ 10
shin@@ 10
shoe@@ 10
shu@@ 10
siberian 10
six 10
skeleton 10
skil@@ 10
slender 10
sma 10
smoke 10
snapper 10
snipe 10
spark 10
spermat@@ 10
spur@@ 10
squar@@ 10
sse 10
ssima 10
stair@@ 10
stenosis 10
sthe@@ 10
stling 10
stocking 10
strian 10
stry 10
stum 10
stus 10
stylo@@ 10
suicide 10
suture 10
sweat 10
swedish 10
sylvi@@ 10
symplo@@ 10
synap@@ 10
synthe@@ 10
syringa 10
tachy@@ 10
tack 10
tae 10
talinum 10
tanacetum 10
taria 10
tay@@ 10
technical 10
telo@@ 10
terrorist 10
terus 10
tet 10
thar@@ 10
theca 10
theor@@ 10
thouse 10
thread 10
threshold 10
thrum 10
thrust 10
thyme 10
tiales 10
ticum 10
tii 10
till@@ 10
tinctoria 10
tinia 10
tler 10
tlessness 10
tomys 10
tooth@@ 10
toothed 10
total@@ 10
tout 10
transp@@ 10
transportation 10
tray 10
troglodytes 10
tron 10
trophic 10
tropin 10
tropism 10
trout 10
truth 10
tsia 10
tsuga 10
tte 10
turdus 10
tyro@@ 10
uble 10
uer 10
ulaceae 10
ulon 10
unciation 10
ungu@@ 10
unic@@ 10
ux 10
vaccine 10
valuation 10
variola 10
vati@@ 10
vent 10
venture 10
venus@@ 10
vern@@ 10
vertebra 10
vesper@@ 10
vigna 10
viral 10
vise 10
vulus 10
vum 10
wand@@ 10
way@@ 10
weather@@ 10
wee 10
welfare 10
wet@@ 10
whistle 10
wig@@ 10
wing@@ 10
wormwood 10
wright 10
yach@@ 10
yam 10
ycle 10
yellowwood 10
yer@@ 10
ym 10
youth 10
zamia 10
19@@ 9
absence 9
accipit@@ 9
accommod@@ 9
accoun@@ 9
acer@@ 9
acon 9
actor 9
adeno@@ 9
ador 9
adrenergic 9
adverti@@ 9
aepy@@ 9
aerial 9
aeus 9
after 9
agave 9
agropyron 9
airplane 9
alas@@ 9
alaska 9
albu@@ 9
aldehyde 9
aler 9
alloy 9
alphab@@ 9
alpina 9
alum@@ 9
aluminum 9
alysis 9
aming 9
ammonium 9
anac@@ 9
anate 9
anchovy 9
andromeda 9
aneous 9
anesthetic 9
anglo 9
angusti@@ 9
anise 9
anist 9
antelope 9
antenna 9
anthro@@ 9
antibody 9
ao@@ 9
apple@@ 9
apricot 9
araucaria 9
ardi@@ 9
arina 9
arisation 9
arization 9
armor 9
armored 9
aspect 9
aspis 9
assay 9
assu 9
asy@@ 9
atax@@ 9
athe@@ 9
ather 9
athus 9
atica 9
attraction 9
aughter 9
aurus 9
axiom 9
backed 9
bai@@ 9
bang 9
basal 9
basidi@@ 9
bates 9
bathing 9
battle@@ 9
bead 9
beater 9
belgian 9
ber's 9
berg 9
bers 9
bicolor 9
bie 9
billiard 9
biness 9
blank 9
boc@@ 9
boot@@ 9
booth 9
boston 9
bot 9
bound@@ 9
bour 9
breeding 9
brittle 9
brom@@ 9
brother 9
buckthorn 9
bular 9
bullet 9
burger 9
burial 9
but 9
bypass 9
cadmium 9
caerulea 9
callitris 9
calorie 9
camphor 9
canadense 9
capillary 9
capra 9
capri@@ 9
capro@@ 9
capsule 9
caram@@ 9
carcinoma 9
card@@ 9
carduelis 9
carol@@ 9
carolinensis 9
caroliniana 9
carri@@ 9
cass@@ 9
castanea 9
castor 9
cat's 9
catch 9
catech@@ 9
caterpillar 9
cath@@ 9
censorship 9
ception 9
cerebri 9
certi@@ 9
cery 9
chaen@@ 9
chamaecy@@ 9
change@@ 9
cheli@@ 9
chima@@ 9
choice 9
chop@@ 9
chromat@@ 9
chron@@ 9
chu@@ 9
cich@@ 9
cid 9
cigar 9
circumflex 9
citellus 9
citi@@ 9
claw 9
cleaning 9
cliff 9
clitocybe 9
clothing 9
cluster 9
clutch 9
cnem@@ 9
cochle@@ 9
coer@@ 9
colap@@ 9
colli@@ 9
combination 9
communications 9
concern 9
concre@@ 9
conden@@ 9
condenser 9
conditioned 9
congenital 9
conjunction 9
consciousness 9
constitu@@ 9
coordinate 9
copal 9
corner 9
cornus 9
cornut@@ 9
cosmic 9
coum@@ 9
county 9
crab@@ 9
crash 9
crisp@@ 9
cristata 9
crum@@ 9
cuban 9
cuckoo 9
culosis 9
cultivated 9
cup@@ 9
curren@@ 9
cushion 9
cyano@@ 9
cyst 9
dam 9
damages 9
dan 9
daval@@ 9
ddler 9
deb@@ 9
deception 9
deco@@ 9
decre@@ 9
dee 9
deed 9
definition 9
delta 9
delto@@ 9
desser@@ 9
detergent 9
diab@@ 9
diag@@ 9
diaph@@ 9
diary 9
dicty@@ 9
digit 9
dina 9
ding@@ 9
diplomatic 9
direction 9
dissol@@ 9
divine 9
dome 9
drome 9
dron 9
dump 9
dura@@ 9
eared 9
eau 9
ecclesias@@ 9
eck 9
edu@@ 9
ee@@ 9
eight 9
elastic 9
electrostatic 9
elium 9
ember@@ 9
emer@@ 9
emergency 9
enary 9
endom@@ 9
enterprise 9
entness 9
enus 9
eopsis 9
erem@@ 9
erian 9
erica 9
ero 9
ert 9
erus 9
escal@@ 9
essential 9
etail 9
eter@@ 9
ethmo@@ 9
ethylene 9
etia 9
etre 9
eut@@ 9
even 9
even@@ 9
exam 9
excel@@ 9
execution 9
exten@@ 9
fair@@ 9
farmer 9
fasc@@ 9
fashion 9
feature 9
felt 9
fice 9
fici@@ 9
fida 9
fif@@ 9
fifth 9
flask 9
float 9
flute 9
forec@@ 9
fork 9
fortun@@ 9
fortune 9
fossa 9
foul 9
foxtail 9
frac@@ 9
fraction 9
fresh 9
freshwater 9
frog@@ 9
fuch@@ 9
fundamental 9
furniture 9
gallery 9
gavi@@ 9
gean 9
geological 9
germ 9
glans 9
going 9
goosefoot 9
gorgon@@ 9
govern@@ 9
graft 9
graphical 9
gravit@@ 9
gravitational 9
gren@@ 9
guava 9
guidance 9
guide@@ 9
gull 9
halluc@@ 9
harvest 9
has@@ 9
hay 9
hazard 9
heap 9
helianthus 9
helmin@@ 9
hemat@@ 9
hepat@@ 9
heredi@@ 9
heroic 9
heron 9
hexag@@ 9
himantopus 9
hirsut@@ 9
hooded 9
horizon 9
horri@@ 9
horten@@ 9
hosti@@ 9
huckleberry 9
hul@@ 9
hyacin@@ 9
hyem@@ 9
ice@@ 9
ician 9
icker 9
ico@@ 9
ifolium 9
ign 9
im 9
imal 9
imp@@ 9
implant 9
inator 9
inclin@@ 9
incon@@ 9
indefin@@ 9
independ@@ 9
individ@@ 9
indus 9
influ@@ 9
infrared 9
ingia 9
inisation 9
inity 9
inization 9
input 9
insec@@ 9
inspec@@ 9
instruc@@ 9
intel@@ 9
isia 9
ission 9
ist's 9
ital 9
itarian 9
itude 9
itus 9
jamaica 9
janus 9
japan 9
jerusalem 9
jew 9
journ@@ 9
junk 9
kaff@@ 9
kam@@ 9
keto@@ 9
kh@@ 9
knuck@@ 9
kor@@ 9
labor@@ 9
labour 9
labyrinth@@ 9
lactuca 9
laea 9
lain 9
langu@@ 9
laryn@@ 9
lass 9
laund@@ 9
laur@@ 9
lawyer 9
laying 9
leishmaniasis 9
lement 9
leness 9
lent@@ 9
lespedeza 9
lighter 9
lighting 9
ligustrum 9
limno@@ 9
lina 9
littor@@ 9
lizer 9
lobelia 9
location 9
loco@@ 9
loft 9
lop 9
lorhiza 9
lousness 9
ls 9
lubri@@ 9
luggage 9
lutea 9
lycopodium 9
lysimachia 9
lytic 9
magazine 9
main@@ 9
malv@@ 9
mammu@@ 9
mander 9
mandibular 9
map@@ 9
mare 9
marrow 9
marsupi@@ 9
master@@ 9
mastigo@@ 9
matism 9
matory 9
maxillary 9
menzi@@ 9
mesenter@@ 9
min 9
mining 9
mist 9
mistletoe 9
mixed 9
mness 9
model 9
monarda 9
montia 9
motive 9
mouth@@ 9
muja@@ 9
mulberry 9
mullein 9
muni@@ 9
murder 9
mustela 9
myrmeco@@ 9
myxobacter@@ 9
natur@@ 9
naz@@ 9
needle@@ 9
neglec@@ 9
nepet@@ 9
ner's 9
nim@@ 9
nine 9
nity 9
niv@@ 9
normal 9
not 9
nothofagus 9
notor@@ 9
nursing 9
nutmeg 9
o'clock 9
objec@@ 9
oblastic 9
ocarbon 9
ocarp@@ 9
ocean 9
ocereus 9
octa@@ 9
od 9
ode 9
odonta 9
odus 9
odytes 9
olaria 9
olfactory 9
onis 9
onset 9
onym 9
oom 9
oot 9
ophrys 9
opoda 9
opportun@@ 9
opterus 9
orbital 9
orche@@ 9
ordination 9
orhyn@@ 9
orientalis 9
oriole 9
orni@@ 9
oro@@ 9
orrho@@ 9
osaur 9
ostom@@ 9
output 9
ox 9
oxal@@ 9
oxylum 9
paint@@ 9
pair@@ 9
pane 9
para 9
parent 9
parliam@@ 9
paro@@ 9
particip@@ 9
partridge 9
parvi@@ 9
patho@@ 9
peac@@ 9
pelli@@ 9
penicillin 9
performance 9
perono@@ 9
perus 9
peso 9
peter 9
petit 9
phalar@@ 9
phenyl@@ 9
phium 9
phoid 9
photo 9
photographic 9
phry@@ 9
phyllocla@@ 9
physalis 9
physiological 9
pian 9
pike 9
pimpernel 9
pipistre@@ 9
pizza 9
pkin 9
placentation 9
plain@@ 9
plantago 9
plement 9
pler 9
pline 9
plume 9
polish 9
polypody 9
polystichum 9
ponder@@ 9
poon 9
possi@@ 9
ppa 9
president 9
processor 9
produc@@ 9
proli@@ 9
propeller 9
propy@@ 9
psal@@ 9
pseude@@ 9
pseudomon@@ 9
psoph@@ 9
psychological 9
ptero@@ 9
pteroc@@ 9
pubescens 9
pulmon@@ 9
puppet 9
purchase 9
purpu@@ 9
pyrola 9
qua@@ 9
quality 9
quantum 9
ques@@ 9
racem@@ 9
rage@@ 9
raj@@ 9
rapid 9
rata 9
razo@@ 9
reader 9
recon@@ 9
recorder 9
refri@@ 9
register 9
reh@@ 9
relations 9
rement 9
rep@@ 9
repens 9
requi@@ 9
resc@@ 9
rese@@ 9
resource 9
rhea 9
rhino@@ 9
rhiza 9
ridg@@ 9
ridge 9
rig@@ 9
rink 9
room@@ 9
ropogon 9
rotor 9
rotundifolia 9
roun@@ 9
round@@ 9
roxylon 9
rrh@@ 9
rubra 9
sabbati@@ 9
sack@@ 9
sailing 9
salam@@ 9
salis 9
sandpiper 9
sanguin@@ 9
sarrac@@ 9
sash 9
sau@@ 9
sauc@@ 9
sauri@@ 9
scientific 9
scoly@@ 9
scorpion@@ 9
scot@@ 9
scottish 9
scrip@@ 9
scru@@ 9
selaginella 9
sempervirens 9
sequo@@ 9
serr@@ 9
servant 9
server 9
setting 9
settlement 9
sewing 9
shipping 9
shirt@@ 9
shore 9
shrub 9
siana 9
sification 9
signi@@ 9
silene 9
sister 9
sitter 9
sleeve 9
smoking 9
smooth@@ 9
snakeroot 9
socket 9
soft@@ 9
somal 9
soul 9
sound@@ 9
soybean 9
span@@ 9
spat@@ 9
speciosa 9
spect@@ 9
sperma 9
sphyra@@ 9
spiral 9
spiritual 9
split@@ 9
spra@@ 9
spray 9
spread 9
squat@@ 9
stalk 9
stanti@@ 9
statistic@@ 9
statistics 9
steering 9
stegia 9
stered 9
sterol 9
ston 9
strain 9
straint 9
stratum 9
strength 9
streptom@@ 9
striata 9
strong 9
struction 9
structural 9
stuff 9
sulphur 9
supreme 9
syllable 9
sylvan@@ 9
sylvestris 9
symbol 9
syner@@ 9
syrian 9
systema 9
tack@@ 9
takeover 9
tangent 9
tative 9
teaching 9
temporary 9
tetragon@@ 9
teuc@@ 9
tham@@ 9
thead 9
thesis 9
thin@@ 9
thiness 9
thoracic 9
thra@@ 9
thyroid 9
tibility 9
tice@@ 9
tidal 9
tier@@ 9
tifolia 9
tilia 9
tinea 9
tioning 9
tisia 9
tisus 9
tival 9
tolerance 9
toon 9
torpedo 9
torre@@ 9
tortoise 9
tortri@@ 9
touch@@ 9
tow 9
trach@@ 9
train@@ 9
transit 9
transport 9
trav@@ 9
tribu@@ 9
tricolor 9
trifolium 9
trigon@@ 9
triticum 9
trot 9
trum@@ 9
ttle 9
tub 9
tuna 9
turbine 9
turer 9
turkish 9
tut@@ 9
uality 9
uary 9
ughing 9
unculus 9
undi 9
uousness 9
ureth@@ 9
urium 9
uta 9
uterine 9
vah 9
valeri@@ 9
valu@@ 9
vanilla 9
vapo@@ 9
vener@@ 9
ventri@@ 9
verbena 9
vert 9
vinegar 9
viper@@ 9
virg@@ 9
viridis 9
viro@@ 9
vowel 9
vulture 9
was@@ 9
wealth 9
weapons 9
weeping 9
wer@@ 9
widow 9
winkle 9
wintergreen 9
wisteria 9
wom@@ 9
wool@@ 9
world@@ 9
ye@@ 9
yi 9
yi@@ 9
yote 9
yri@@ 9
zea 9
zine 9
zoon 9
zy 9
0@@ 8
14 8
18@@ 8
24 8
abane 8
abasia 8
abronia 8
abu@@ 8
acanthus 8
acces@@ 8
acchar@@ 8
accus@@ 8
acha 8
acqui@@ 8
acre 8
actinomyc@@ 8
actu@@ 8
adaceae 8
addict 8
adel@@ 8
adiantum 8
administrative 8
admiral 8
adop@@ 8
ados 8
adow@@ 8
advoc@@ 8
affairs 8
afro@@ 8
age@@ 8
agriculture 8
alarm 8
alcea 8
alcoho@@ 8
aldo@@ 8
alexand@@ 8
alidae 8
alien@@ 8
alim@@ 8
allegh@@ 8
allow@@ 8
alpinia 8
alpinum 8
alumin@@ 8
amanita 8
ambig@@ 8
ambro@@ 8
amia 8
amidae 8
amino@@ 8
amount 8
ampli@@ 8
anaesthetic 8
analog 8
anas@@ 8
ance@@ 8
ander@@ 8
anea 8
angioma 8
anine 8
annona 8
anser@@ 8
anthaceae 8
antic@@ 8
antine 8
apa 8
aper@@ 8
apin 8
appear@@ 8
appeti@@ 8
arab 8
arabian 8
aralia 8
arec@@ 8
ariales 8
aristo@@ 8
arizona 8
armen@@ 8
arom@@ 8
arterial 8
arteritis 8
ary@@ 8
ascar@@ 8
asi 8
asing 8
asphod@@ 8
asthen@@ 8
asting 8
astronom@@ 8
atal 8
ates 8
atitis 8
atmospher@@ 8
atology 8
atom 8
atrioventricular 8
ats 8
attention 8
audio 8
aul 8
auro@@ 8
austro@@ 8
auth@@ 8
autum@@ 8
aux 8
aven@@ 8
avens 8
axial 8
bacon 8
ballo@@ 8
baw@@ 8
beak 8
beaver 8
bee@@ 8
behavior 8
beli@@ 8
belief 8
best 8
bibit 8
bibyte 8
bile 8
bilis 8
bine 8
bishop@@ 8
bitis 8
blackberry 8
blat@@ 8
bole@@ 8
bomba@@ 8
border 8
bound 8
bout@@ 8
boxing 8
bracte@@ 8
branchi@@ 8
bras@@ 8
brazilian 8
bre 8
breadth 8
breech 8
breeze 8
brier 8
buddh@@ 8
budget 8
bulbo@@ 8
bum 8
bure@@ 8
burg@@ 8
buteo 8
cabin 8
caine 8
cair@@ 8
calamintha 8
cales 8
cality 8
calla 8
campan@@ 8
cardamine 8
carotid 8
carpenter's 8
carrot 8
cartilage 8
cary@@ 8
castille@@ 8
catal@@ 8
cating 8
cattle@@ 8
cause 8
cavi@@ 8
cd@@ 8
cereal 8
ceremony 8
chair@@ 8
chalk 8
charis 8
cheir@@ 8
cheon 8
cheque 8
chial 8
chimney 8
chinkapin 8
chis@@ 8
chisel 8
chment 8
cholera 8
chos 8
chromatic 8
chur@@ 8
chy 8
cidia 8
cidium 8
cine 8
cinnam@@ 8
ciousness 8
circus 8
citation 8
civilization 8
classification 8
clay@@ 8
cleaner 8
clear@@ 8
cleft 8
clintonia 8
clitor@@ 8
clock@@ 8
closing 8
closure 8
coal@@ 8
cobal@@ 8
coccin@@ 8
cod 8
cog@@ 8
cognition 8
combre@@ 8
commel@@ 8
commen@@ 8
commit@@ 8
commun@@ 8
communic@@ 8
commut@@ 8
compli@@ 8
compo@@ 8
conduct 8
confer@@ 8
conform@@ 8
conifer@@ 8
conium 8
constancy 8
constric@@ 8
construction 8
consum@@ 8
consumer 8
content 8
conval@@ 8
convic@@ 8
cooking 8
cope 8
corax 8
cord@@ 8
cordy@@ 8
corro@@ 8
cottage 8
cotyledon@@ 8
covered 8
cracy 8
craw@@ 8
creature 8
creme 8
crispa 8
criticism 8
crocody@@ 8
crook@@ 8
crus@@ 8
crust@@ 8
cry 8
cult 8
currant 8
custard 8
cycli@@ 8
cylin@@ 8
cyr@@ 8
cystis 8
cytic 8
dah 8
dalbergia 8
dalis 8
dandelion 8
dang@@ 8
daub@@ 8
davi@@ 8
dece@@ 8
deer@@ 8
deficit 8
delay 8
demand 8
democra@@ 8
dendroica 8
denom@@ 8
depar@@ 8
depreciation 8
depth 8
deriv@@ 8
dermo@@ 8
ders 8
desensi@@ 8
destin@@ 8
detec@@ 8
detention 8
deter@@ 8
develo@@ 8
dewberry 8
dial@@ 8
diamond 8
dicran@@ 8
difference 8
digger 8
dioscorea 8
dipole 8
disci@@ 8
discount 8
distress 8
dite 8
dling 8
doo 8
dragon@@ 8
dramatic 8
dress@@ 8
drink 8
drops 8
dune 8
dust@@ 8
eater 8
ebon@@ 8
echino@@ 8
eclip@@ 8
economics 8
ecta@@ 8
ede@@ 8
edic@@ 8
eel@@ 8
eflower 8
egal@@ 8
eia 8
ein@@ 8
elaeag@@ 8
elbow 8
elidae 8
elitis 8
elymus 8
embar@@ 8
embroid@@ 8
emperor 8
empi@@ 8
emus 8
engraving 8
eniaceae 8
entosa 8
entus 8
environ@@ 8
ephed@@ 8
epitheli@@ 8
epo@@ 8
equal 8
equis@@ 8
erent 8
ergo@@ 8
ernity 8
eru@@ 8
erythronium 8
esch@@ 8
esii 8
essive 8
ester 8
etamine 8
ethy@@ 8
eting 8
eub@@ 8
eugenia 8
euony@@ 8
eur@@ 8
eura@@ 8
ever@@ 8
evo 8
excre@@ 8
exhaust 8
explo@@ 8
exponential 8
f's 8
falco 8
farming 8
fastener 8
favor@@ 8
february 8
felic@@ 8
fene@@ 8
ferae 8
fetal 8
ffe 8
ffon 8
fighting 8
finish 8
fissure 8
flin@@ 8
flow@@ 8
flowered 8
fluores@@ 8
flycatcher 8
foc@@ 8
folding 8
fom@@ 8
fontan@@ 8
forme 8
forming 8
fragran@@ 8
frank@@ 8
freeze 8
friction 8
fringe 8
frozen 8
fruc@@ 8
frutescens 8
fuge 8
fy 8
galac@@ 8
galium 8
gambling 8
gaster@@ 8
gastero@@ 8
gastrica 8
ged 8
gele@@ 8
generator 8
genti@@ 8
gentle@@ 8
geography 8
germanic 8
gim@@ 8
ginkgo@@ 8
glac@@ 8
glacier 8
glan@@ 8
glass@@ 8
glauca 8
glossidae 8
glosso@@ 8
glot@@ 8
glow 8
glyco@@ 8
gob@@ 8
gossypium 8
graec@@ 8
grammatical 8
granadi@@ 8
grease 8
grid 8
groen@@ 8
guest 8
guine@@ 8
guitar 8
hai@@ 8
harp 8
hast@@ 8
heav@@ 8
hec@@ 8
helix 8
hepatic 8
hero@@ 8
higher 8
hinidae 8
hitch 8
hoary 8
holoth@@ 8
honor@@ 8
horseshoe 8
hose 8
hosp@@ 8
hungarian 8
hut@@ 8
hybrid 8
hyla 8
hyp@@ 8
iba 8
icing 8
icula 8
iculum 8
idectomy 8
idis 8
iger 8
illata 8
ille@@ 8
ilo@@ 8
imaginary 8
immun@@ 8
impro@@ 8
impulse 8
inap@@ 8
incar@@ 8
ind 8
indo 8
ines@@ 8
inex@@ 8
infin@@ 8
inist 8
initi@@ 8
inium 8
injection 8
inqu@@ 8
insur@@ 8
integra@@ 8
interface 8
ionic 8
iop@@ 8
iority 8
iosus 8
ished 8
islam 8
ison 8
itic 8
its 8
jacob@@ 8
jama@@ 8
japon@@ 8
jasmin@@ 8
jaw@@ 8
jewish 8
jig@@ 8
john 8
john@@ 8
joke 8
jol@@ 8
judge 8
juncus 8
k's 8
kak@@ 8
kauri 8
kel 8
kentucky 8
killing 8
kino 8
knap@@ 8
know 8
kum@@ 8
lach@@ 8
lacrimal 8
lade 8
lae 8
laim@@ 8
lama 8
lamp@@ 8
lanceolata 8
landica 8
larix 8
laryngo@@ 8
lase 8
lash 8
latifolia 8
lavender 8
lean 8
lear@@ 8
ledger 8
lee@@ 8
lef@@ 8
length 8
letters 8
liberty 8
light@@ 8
lii 8
lima@@ 8
lime@@ 8
lingual 8
linkage 8
linked 8
lino@@ 8
lique@@ 8
literature 8
lly 8
lment 8
lobul@@ 8
lodg@@ 8
loides 8
longi@@ 8
look 8
loris 8
lounge 8
lover 8
lumin@@ 8
lunch 8
lupinus 8
lupus 8
lura 8
lychnis 8
macadamia 8
maculata 8
mage 8
mail@@ 8
maltese 8
manag@@ 8
manager 8
mania 8
martes 8
martin 8
martin@@ 8
mastig@@ 8
mater@@ 8
matricaria 8
medicago 8
melia 8
menis@@ 8
meso@@ 8
met 8
metacar@@ 8
metri@@ 8
mik@@ 8
miness 8
minu@@ 8
mistress 8
mobile 8
moh@@ 8
money@@ 8
mortality 8
mos 8
mosaic 8
mot 8
mour 8
mud@@ 8
mullet 8
multipli@@ 8
musa 8
musk@@ 8
muslim 8
mussel 8
n's 8
nan 8
nasturtium 8
necked 8
necro@@ 8
negli@@ 8
nesian 8
neuri@@ 8
neutr@@ 8
newborn 8
nie 8
nite 8
noctu@@ 8
nominal 8
nose@@ 8
nova 8
nucleo@@ 8
oan 8
obacter 8
oblast 8
oblig@@ 8
oblique 8
obus 8
ocarpaceae 8
occipital 8
ocell@@ 8
ocent@@ 8
ocharis 8
oci@@ 8
ocidae 8
ocular 8
odd 8
odi@@ 8
oeu@@ 8
offen@@ 8
official 8
ok 8
olaris 8
olum 8
omphal@@ 8
omycotina 8
onaria 8
oni@@ 8
oniidae 8
onotus 8
onto@@ 8
ontology 8
opath@@ 8
ophaga 8
opor@@ 8
opposition 8
opterous 8
opteryx 8
or's 8
orbit 8
ord@@ 8
ordinate 8
oria 8
orium 8
oryc@@ 8
oscop@@ 8
oven 8
ovirus 8
pace 8
paddle 8
painter 8
palatine 8
panth@@ 8
papili@@ 8
papri@@ 8
parag@@ 8
parallax 8
paralysis 8
parap@@ 8
parasite 8
pariet@@ 8
parietal 8
parkin@@ 8
passing 8
pavo 8
pectin@@ 8
pede 8
pedia 8
peel 8
pel 8
pelargonium 8
percus@@ 8
perfec@@ 8
perid@@ 8
perit@@ 8
perman@@ 8
pero@@ 8
perpet@@ 8
peruvian 8
petrel 8
petroleum 8
petunia 8
phagus 8
pharmac@@ 8
pheasant 8
pheny@@ 8
phiidae 8
phila@@ 8
philadelph@@ 8
pholi@@ 8
phore 8
picus 8
pidity 8
pim@@ 8
piment@@ 8
piper 8
pist@@ 8
pituitary 8
planetary 8
plasty 8
pleth@@ 8
pliers 8
pois@@ 8
polygala 8
polypodium 8
pomac@@ 8
pondweed 8
pong 8
popu@@ 8
pouch 8
pout 8
pre 8
predic@@ 8
prick@@ 8
primi@@ 8
primula 8
prize 8
probability 8
problem 8
procell@@ 8
prop 8
proportional 8
protection 8
protective 8
pruri@@ 8
pse@@ 8
psychosis 8
pter 8
pteridae 8
pterido@@ 8
public@@ 8
publishing 8
puer@@ 8
pula 8
purse 8
push@@ 8
quand@@ 8
quat 8
quer 8
quisition 8
quit@@ 8
rableness 8
raisin 8
rake 8
ramine 8
rape 8
rational 8
raven@@ 8
rear 8
reception 8
rede@@ 8
reflux 8
reinfor@@ 8
relax@@ 8
reproduc@@ 8
rer 8
residence 8
restrial 8
retar@@ 8
reus 8
revi@@ 8
rheum 8
rhubarb 8
ribes 8
richar@@ 8
rid@@ 8
ried 8
robe 8
rogation 8
rolling 8
rosea 8
rosewood 8
route 8
rove 8
rowing 8
rupi@@ 8
sagebrush 8
sambucus 8
santal@@ 8
satin 8
say 8
scallo@@ 8
scanner 8
scarab@@ 8
scat@@ 8
scent 8
scented 8
scheme 8
schist@@ 8
scuti@@ 8
seasi@@ 8
secant 8
sedi@@ 8
seg@@ 8
seismo@@ 8
sella 8
selling 8
semicon@@ 8
setter 8
seus 8
seven 8
shad 8
shag@@ 8
shak@@ 8
shake 8
shed 8
shei@@ 8
shelf 8
shelter 8
sher@@ 8
shoot 8
shopping 8
shovel 8
shri@@ 8
siaceae 8
sil 8
silkworm 8
simplex 8
simu@@ 8
sinensis 8
sitting 8
skater 8
slavic 8
slow 8
sm@@ 8
sme@@ 8
snor@@ 8
soleno@@ 8
somatic 8
sorus 8
spade@@ 8
spath@@ 8
spear@@ 8
speedwell 8
spel@@ 8
spell 8
spermae 8
sphy@@ 8
spinning 8
sporangium 8
spri@@ 8
squaw 8
stain 8
stasis 8
station@@ 8
steam@@ 8
step@@ 8
sterculia 8
stering 8
steroid 8
sterone 8
still@@ 8
stilt 8
stone@@ 8
strator 8
striate 8
stric@@ 8
striction 8
stunt 8
su 8
sua@@ 8
subphylum 8
sula 8
supporting 8
supre@@ 8
survi@@ 8
swer@@ 8
swit@@ 8
sylla@@ 8
synthetic 8
syphili@@ 8
syrup 8
taff@@ 8
tag 8
taic 8
tainer 8
take@@ 8
tales 8
tansy 8
tarsi@@ 8
tatus 8
taurus 8
tauto@@ 8
tch@@ 8
techni@@ 8
teenth 8
tell@@ 8
tem 8
tender 8
tensin 8
termitidae 8
terra@@ 8
testu@@ 8
thal 8
thatch 8
theatrical 8
theology 8
theres 8
therm 8
thermi@@ 8
thfulness 8
thian 8
thim@@ 8
thing@@ 8
thmic 8
thousand 8
throm@@ 8
thunder@@ 8
tibet@@ 8
tibialis 8
tication 8
tieth 8
tigh@@ 8
tility 8
tit 8
toad@@ 8
tobac@@ 8
toed 8
toll@@ 8
tomography 8
topo@@ 8
topology 8
topus 8
torship 8
tour@@ 8
toxo@@ 8
tragelaphus 8
trailer 8
transitive 8
transmitter 8
trate 8
trick 8
trig@@ 8
trim@@ 8
trol@@ 8
trope 8
tropic 8
tuli@@ 8
tumour 8
turk@@ 8
turnix 8
twe@@ 8
typewriter 8
typhlo@@ 8
u. 8
ucus 8
ulatum 8
ultr@@ 8
unce 8
unit@@ 8
univer@@ 8
untain 8
utus 8
vapor 8
varia 8
varic@@ 8
vault 8
velocity 8
ventricle 8
ver's 8
verdict 8
verni@@ 8
vers 8
viburnum 8
vicia 8
vii 8
villea 8
vireo 8
virtu@@ 8
visor 8
vitae 8
vote 8
vre 8
vulpes 8
waiting 8
wake 8
watt 8
wattle 8
weevil 8
whipping 8
who@@ 8
whoo@@ 8
wig 8
will@@ 8
wit 8
wolff@@ 8
wur@@ 8
xim@@ 8
xus 8
xx@@ 8
xyl@@ 8
yal 8
ye 8
yllis 8
zam@@ 8
ziz@@ 8
zoarc@@ 8
zygn@@ 8
12 7
abdomin@@ 7
acaulis 7
accel@@ 7
acker 7
acular 7
adian 7
adow 7
aeg@@ 7
agre@@ 7
aja@@ 7
alab@@ 7
albat@@ 7
alger@@ 7
aliser 7
aliz@@ 7
alizer 7
alleg@@ 7
alley 7
alosa 7
amber@@ 7
ament 7
amese 7
ami@@ 7
amin 7
ana@@ 7
anaph@@ 7
ancy@@ 7
aner 7
aniso@@ 7
anor@@ 7
anox@@ 7
anship 7
aque@@ 7
aren@@ 7
argon@@ 7
armour 7
arre@@ 7
arri@@ 7
aspar@@ 7
atine 7
atlas 7
atte@@ 7
aury 7
bago 7
bation 7
bau@@ 7
billi@@ 7
born 7
bosc@@ 7
breast@@ 7
buil@@ 7
bw 7
cae 7
cage 7
califor@@ 7
carolin@@ 7
cess 7
chab@@ 7
chama@@ 7
ched 7
chen 7
chiness 7
chis 7
chle@@ 7
chon 7
chuck 7
cider 7
circumfle@@ 7
cket@@ 7
clon@@ 7
cly@@ 7
coast@@ 7
cob@@ 7
coel@@ 7
cohun@@ 7
coides 7
copernic@@ 7
cor 7
cos@@ 7
cote 7
cott@@ 7
coup 7
cypri@@ 7
dak@@ 7
dar 7
dative 7
defin@@ 7
della 7
deposi@@ 7
dh@@ 7
diamon@@ 7
diar@@ 7
dick 7
die@@ 7
diethy@@ 7
digi@@ 7
diidae 7
dil@@ 7
dilat@@ 7
discre@@ 7
discri@@ 7
disper@@ 7
distribu@@ 7
disturb@@ 7
ditch 7
divaric@@ 7
diver 7
dix 7
drin@@ 7
drun@@ 7
du 7
dwar@@ 7
dweed 7
eas 7
echo@@ 7
ehound 7
eid 7
ek@@ 7
elo 7
elon@@ 7
ely 7
ely@@ 7
encyc@@ 7
eni 7
eon 7
epilep@@ 7
epin@@ 7
erin@@ 7
erite 7
estive 7
esus 7
etics 7
euc@@ 7
eucaly@@ 7
eur 7
euri@@ 7
evolution 7
ez@@ 7
fast@@ 7
fit 7
fram@@ 7
fritill@@ 7
fry 7
fying 7
gag@@ 7
gathering 7
gav@@ 7
genes 7
genicul@@ 7
genre 7
giness 7
glor@@ 7
grun@@ 7
gument 7
hanger 7
hemor@@ 7
hic@@ 7
hock 7
hyn@@ 7
ibis 7
icide 7
icterus 7
iella 7
ific 7
iform 7
illance 7
ilor 7
ily 7
inary 7
inclusion 7
inet 7
infer@@ 7
inger@@ 7
inite 7
ink@@ 7
inner 7
inside 7
instr@@ 7
insul@@ 7
inter 7
ior@@ 7
islam@@ 7
isphere 7
isra@@ 7
itableness 7
ital@@ 7
itness 7
java 7
jen@@ 7
jit@@ 7
job@@ 7
jut@@ 7
kab@@ 7
kah 7
knit@@ 7
kol@@ 7
kom@@ 7
kop@@ 7
kra@@ 7
laburnum 7
laby 7
lact@@ 7
lagen@@ 7
lam 7
lanceol@@ 7
laser 7
laugh 7
lax 7
lei@@ 7
leit@@ 7
lepus 7
letree 7
lex@@ 7
lier 7
lign@@ 7
like 7
lilac 7
limen@@ 7
lle 7
locu@@ 7
lodge 7
logue 7
lol 7
lone 7
lotion 7
luck 7
mack@@ 7
maid@@ 7
mandi@@ 7
mata 7
mathemati@@ 7
mb 7
membran@@ 7
mess 7
ming@@ 7
moll@@ 7
mp 7
nard 7
nings 7
nol@@ 7
nuci@@ 7
nya 7
oar@@ 7
oec@@ 7
oeno@@ 7
oh@@ 7
olig@@ 7
oman 7
omyco@@ 7
onella 7
onics 7
onite 7
onna@@ 7
onry 7
ophag@@ 7
ophyllum 7
ople 7
ornam@@ 7
oryx 7
ostre@@ 7
ovi@@ 7
panthera 7
paralle@@ 7
partment 7
phage 7
phra@@ 7
phrag@@ 7
pica 7
ping@@ 7
pion@@ 7
pist 7
poem 7
poi@@ 7
poke 7
pop@@ 7
prim@@ 7
prum@@ 7
ptom@@ 7
qi 7
rance 7
rap 7
real@@ 7
reci@@ 7
reduction 7
relig@@ 7
remov@@ 7
repe@@ 7
resol@@ 7
resort 7
respiration 7
retri@@ 7
rette 7
rib 7
ril 7
rising 7
roe 7
ronom@@ 7
ror 7
rosem@@ 7
rough@@ 7
rox@@ 7
rurus 7
sable 7
sago 7
sang@@ 7
scan@@ 7
schizoph@@ 7
sement 7
sent 7
servic@@ 7
shade 7
shop@@ 7
sick@@ 7
sie 7
sierra 7
sig@@ 7
silu@@ 7
simar@@ 7
sir@@ 7
sito@@ 7
smel@@ 7
sop@@ 7
stable 7
sthen@@ 7
stitution 7
stment 7
stum@@ 7
sulph@@ 7
sund@@ 7
tatum 7
techno@@ 7
teller 7
them@@ 7
thes@@ 7
think 7
thol@@ 7
tible 7
tinc@@ 7
tip@@ 7
tius 7
tlet 7
ton's 7
treat@@ 7
tren@@ 7
tting 7
tuc@@ 7
tural 7
u.@@ 7
uckle 7
udin@@ 7
ulder 7
uph@@ 7
urge 7
ustic 7
var 7
vest@@ 7
vism 7
vo 7
volution 7
von 7
vulgar@@ 7
wad@@ 7
wal 7
wberry 7
wder 7
wide 7
wido@@ 7
year@@ 7
yeast 7
yness 7
yon@@ 7
za@@ 7
zapo@@ 7
zee 7
zz 7
0000@@ 6
abor@@ 6
acade@@ 6
alpin@@ 6
alve@@ 6
amon@@ 6
amp 6
amyg@@ 6
anatom@@ 6
anten@@ 6
architec@@ 6
artem@@ 6
arven@@ 6
assem@@ 6
athle@@ 6
ato 6
atry 6
aulis 6
benz@@ 6
boo 6
bore@@ 6
brassi@@ 6
brium 6
cardu@@ 6
cea 6
cerv@@ 6
cloth@@ 6
coho@@ 6
comyc@@ 6
concer@@ 6
const@@ 6
crotal@@ 6
cuck@@ 6
cybe 6
dier 6
differ@@ 6
dise@@ 6
domon@@ 6
eag@@ 6
eering 6
ener@@ 6
engra@@ 6
eo 6
ession 6
eth 6
expen@@ 6
fo 6
frax@@ 6
fresh@@ 6
furn@@ 6
gar 6
gink@@ 6
glen@@ 6
glossi@@ 6
gree 6
hamam@@ 6
holi@@ 6
hund@@ 6
icon@@ 6
idance 6
iled 6
insu@@ 6
ising 6
iss 6
itary 6
know@@ 6
lance 6
laure@@ 6
ld@@ 6
lecan@@ 6
lemon@@ 6
lit 6
lo 6
loun@@ 6
masti@@ 6
missi@@ 6
nica 6
ocero@@ 6
ockey 6
officin@@ 6
onica 6
ota 6
peru@@ 6
phle@@ 6
portun@@ 6
proces@@ 6
prop@@ 6
pru@@ 6
quisi@@ 6
rel 6
rhom@@ 6
rica 6
rol 6
roll@@ 6
rup 6
securi@@ 6
skele@@ 6
skir@@ 6
stimul@@ 6
stud@@ 6
stuff@@ 6
swim@@ 6
sylv@@ 6
tection 6
tention 6
tex 6
thous@@ 6
tille@@ 6
unci@@ 6
uth 6
vacu@@ 6
veget@@ 6
ventricular 6
virens 6
wait@@ 6
worm@@ 6
xic@@ 6
ylum 6
absol@@ 5
achy@@ 5
acter@@ 5
ages 5
alian 5
ange 5
ange@@ 5
archit@@ 5
arix 5
armor@@ 5
aurea 5
ava 5
balli@@ 5
basket@@ 5
bati@@ 5
beha@@ 5
bermu@@ 5
braz@@ 5
carcin@@ 5
cerebr@@ 5
chant 5
character@@ 5
chio@@ 5
cial 5
cid@@ 5
consc@@ 5
contr@@ 5
crat@@ 5
dais@@ 5
dical 5
dict 5
dou@@ 5
econom@@ 5
effici@@ 5
egy@@ 5
elev@@ 5
embro@@ 5
eor@@ 5
erator 5
ered 5
eron 5
escen@@ 5
etary 5
euphor@@ 5
ew 5
exec@@ 5
exerc@@ 5
fundam@@ 5
gour@@ 5
guin@@ 5
gyro@@ 5
identi@@ 5
idosis 5
iet@@ 5
issance 5
judi@@ 5
labyrin@@ 5
laphus 5
las 5
lastic 5
leberry 5
letter@@ 5
leuk@@ 5
litt@@ 5
meas@@ 5
mes 5
mort@@ 5
myrme@@ 5
oceros 5
oline 5
omen@@ 5
penic@@ 5
perfor@@ 5
pernic@@ 5
phlo@@ 5
pizz@@ 5
plant@@ 5
porting 5
poster@@ 5
represent@@ 5
rif@@ 5
rub 5
sam 5
saxi@@ 5
scrat@@ 5
secon@@ 5
selagin@@ 5
senec@@ 5
serve 5
shir@@ 5
sort 5
sory 5
speed@@ 5
ssness 5
transmit@@ 5
unk 5
uto@@ 5
wester@@ 5
xico@@ 5
00@@ 4
acin@@ 4
acty@@ 4
admini@@ 4
alex@@ 4
alph@@ 4
alth 4
amper@@ 4
anium 4
anter@@ 4
archa@@ 4
ariz@@ 4
aspl@@ 4
athy 4
atlan@@ 4
bage 4
bly 4
calend@@ 4
campa@@ 4
cardam@@ 4
carti@@ 4
chase 4
cheno@@ 4
chum 4
cket 4
commer@@ 4
cotyle@@ 4
cultiv@@ 4
cust@@ 4
dehyde 4
demic 4
distri@@ 4
dut@@ 4
elly 4
elypteris 4
equival@@ 4
erc@@ 4
essen@@ 4
execu@@ 4
exha@@ 4
expo@@ 4
finan@@ 4
fr@@ 4
gl@@ 4
golden@@ 4
good@@ 4
hep@@ 4
hibi@@ 4
horses@@ 4
hydrox@@ 4
infor@@ 4
inher@@ 4
intelli@@ 4
isance 4
istics 4
istry 4
iver 4
kage 4
kent@@ 4
kill@@ 4
kni@@ 4
lacri@@ 4
leav@@ 4
lish 4
lope 4
lyn@@ 4
mae 4
malign@@ 4
mand 4
mush@@ 4
need@@ 4
newsp@@ 4
notho@@ 4
obli@@ 4
occid@@ 4
oce@@ 4
omile 4
ory@@ 4
osar@@ 4
oth 4
pain@@ 4
pedium 4
pillar 4
pitu@@ 4
pregn@@ 4
pup@@ 4
rattle@@ 4
renia 4
reson@@ 4
reven@@ 4
rial 4
ronia 4
sature@@ 4
saus@@ 4
scl@@ 4
shoo@@ 4
smal@@ 4
smu@@ 4
stachy@@ 4
staphy@@ 4
teach@@ 4
theli@@ 4
thresh@@ 4
thritis 4
tlement 4
torpe@@ 4
torto@@ 4
traff@@ 4
tris 4
tted 4
uri 4
vest 4
windo@@ 4
yel@@ 4
abs@@ 3
acce@@ 3
allig@@ 3
almon@@ 3
arauc@@ 3
asclepi@@ 3
athemati@@ 3
athing 3
aux@@ 3
behavi@@ 3
bis 3
budd@@ 3
camer@@ 3
carpen@@ 3
chamaec@@ 3
christi@@ 3
cigar@@ 3
cupress@@ 3
easter@@ 3
electri@@ 3
emati@@ 3
enni@@ 3
entalis 3
enty 3
enzy@@ 3
equi@@ 3
europe@@ 3
eze 3
fect 3
fic 3
ficial 3
frequ@@ 3
garian 3
globu@@ 3
goose@@ 3
himan@@ 3
horizon@@ 3
ior 3
juni@@ 3
jus@@ 3
juven@@ 3
kworm 3
ladi@@ 3
lance@@ 3
ld 3
lein 3
leish@@ 3
lender 3
leng@@ 3
leum 3
liam@@ 3
llium 3
maiden@@ 3
mariti@@ 3
mira@@ 3
monar@@ 3
occipit@@ 3
oreg@@ 3
orthodo@@ 3
outh 3
palu@@ 3
pher 3
ply 3
pne@@ 3
progre@@ 3
progressi@@ 3
pseu@@ 3
ptus 3
publish@@ 3
religi@@ 3
repti@@ 3
respir@@ 3
reti@@ 3
rhagic 3
ronium 3
rotun@@ 3
rout@@ 3
saf@@ 3
scienti@@ 3
shre@@ 3
spiration 3
spru@@ 3
stichum 3
strat@@ 3
thorac@@ 3
tish 3
toi@@ 3
trage@@ 3
transpor@@ 3
troglody@@ 3
vec@@ 3
verben@@ 3
vire@@ 3
wich 3
yuc@@ 3
airs 2
allow 2
aman@@ 2
annon@@ 2
antum 2
anxi@@ 2
athering 2
atmo@@ 2
azz 2
beet@@ 2
begg@@ 2
belia 2
bital 2
byte 2
capsu@@ 2
chest@@ 2
chona 2
chthy@@ 2
cil 2
clut@@ 2
colle@@ 2
conson@@ 2
cortin@@ 2
coty@@ 2
cucurbit@@ 2
daph@@ 2
dary 2
dioscor@@ 2
eball 2
eccle@@ 2
edy 2
emplo@@ 2
engin@@ 2
enth 2
envi@@ 2
eping 2
ergic 2
eroot 2
esthetic 2
exper@@ 2
expon@@ 2
gala 2
genia 2
gos@@ 2
gossy@@ 2
gres@@ 2
grow@@ 2
guit@@ 2
heade@@ 2
hick@@ 2
hiza 2
huck@@ 2
hydrange@@ 2
iden 2
iel 2
ilian 2
indirec@@ 2
invest@@ 2
jap@@ 2
jas@@ 2
judg@@ 2
kang@@ 2
ledge 2
lege 2
lespe@@ 2
less@@ 2
libr@@ 2
ligu@@ 2
lych@@ 2
macad@@ 2
malt@@ 2
mance 2
marsu@@ 2
mosqu@@ 2
movi@@ 2
nick@@ 2
olar 2
omenon 2
oo 2
ophos@@ 2
orio@@ 2
phin 2
phor 2
pipi@@ 2
porcu@@ 2
prairi@@ 2
prise 2
proper@@ 2
recor@@ 2
repres@@ 2
saxifra@@ 2
sorship 2
soy@@ 2
sple@@ 2
stercu@@ 2
stle@@ 2
strative 2
streng@@ 2
sturb@@ 2
syring@@ 2
tact 2
terror@@ 2
therm@@ 2
thern 2
trine 2
type@@ 2
ulose 2
vacc@@ 2
veh@@ 2
vender 2
verte@@ 2
vous 2
weap@@ 2
zeal@@ 2
ablish@@ 1
accom@@ 1
acetum 1
actus 1
admi@@ 1
anut 1
arb 1
aroo 1
ascle@@ 1
assium 1
atre 1
atrio@@ 1
attor@@ 1
augh@@ 1
auxili@@ 1
beaut@@ 1
bitor 1
blem 1
canad@@ 1
cater@@ 1
celesti@@ 1
chlam@@ 1
clemati@@ 1
cocon@@ 1
colate 1
croco@@ 1
cucur@@ 1
dago 1
depreci@@ 1
dies@@ 1
difolia 1
ellite 1
enfor@@ 1
equip@@ 1
erel 1
erig@@ 1
eupat@@ 1
everla@@ 1
ficate 1
ficiency 1
frut@@ 1
gans 1
gical 1
hibitor 1
hion 1
hyde 1
hydrau@@ 1
ilibrium 1
ilure 1
inion 1
intestin@@ 1
invent@@ 1
isin 1
istle 1
lathy@@ 1
lieuten@@ 1
lim 1
lour 1
maho@@ 1
mahogan@@ 1
manu@@ 1
matical 1
meg 1
mone 1
mosa@@ 1
mph@@ 1
nast@@ 1
oler@@ 1
ool 1
opist@@ 1
oy 1
pens 1
phate 1
pheas@@ 1
pisto@@ 1
pneu@@ 1
polypo@@ 1
range@@ 1
rangement 1
rasp@@ 1
sage@@ 1
sambuc@@ 1
seis@@ 1
semper@@ 1
sias@@ 1
siber@@ 1
sicum 1
sley 1
smit@@ 1
snak@@ 1
sonal 1
sorgh@@ 1
ssing 1
stata 1
strial 1
strife 1
strophy 1
tality 1
techn@@ 1
theatri@@ 1
tibi@@ 1
tionship 1
tocybe 1
toler@@ 1
tsu@@ 1
tten 1
tuce 1
tym@@ 1
ucky 1
ulati@@ 1
umbre@@ 1
vestris 1
