i n 16529
e n 14473
e r 13252
a n 11934
t i 11807
a r 11494
e r</w> 9467
u s</w> 9286
o r 9243
a l 8241
r o 7960
s t 7667
a t 7310
o n 7309
a c 7248
r e 7176
o n</w> 7017
l i 6333
r i 5540
c h 5509
s i 5410
a m 5199
c o 5192
l e 5183
l o 4970
d i 4910
in g</w> 4817
g en 4584
r a 4512
e s 4355
p h 4181
a l</w> 4114
t h 4010
l a 3993
ti on</w> 3925
i l 3898
i s 3800
u n 3704
gen us</w> 3692
i c 3455
e l 3336
u r 3334
i t 3302
u m</w> 3266
p o 3234
a n</w> 3203
a s 3131
d e 2913
l e</w> 2905
e t 2685
a e</w> 2661
o m 2573
u l 2471
i a</w> 2455
e m 2379
es s</w> 2351
u s 2311
t er 2262
i d 2258
a g 2250
a tion</w> 2234
t o 2145
s e 2083
b o 2073
s p 2030
s h 1969
a p 1868
i r 1859
m o 1838
o l 1703
a b 1690
in e</w> 1687
e c 1684
i n</w> 1673
q u 1649
e d</w> 1641
a d 1633
p er 1631
u t 1628
c e</w> 1617
u m 1608
en t</w> 1575
f am 1531
il y</w> 1511
fam ily</w> 1504
c on 1498
o c 1450
e s</w> 1417
o f</w> 1396
h e 1378
p ro 1369
u c 1361
co m 1329
i s</w> 1326
l an 1295
u b 1295
o o 1284
v e</w> 1265
n e 1256
i c</w> 1225
s c 1221
en t 1213
i g 1210
d er</w> 1194
n ess</w> 1192
o p 1189
a ti 1169
t e 1153
m e 1146
p e 1124
a r</w> 1110
h o 1106
h y 1104
c ar 1101
ac e 1095
s o 1087
p ar 1084
d o 1074
r an 1069
s s</w> 1054
g ra 1037
at e</w> 1019
b e 1006
p i 996
o r</w> 993
v i 987
v er 976
si s</w> 968
s e</w> 962
' s</w> 934
s y 932
id ae</w> 930
t y</w> 922
n o 918
w e 915
m a 911
c h</w> 908
g u 905
b i 905
f f 898
t a 883
e t</w> 882
m on 877
ace ae</w> 876
c or 869
f or 869
i d</w> 867
i m 859
ti c 839
t er</w> 835
s a 834
ar y</w> 830
r ac 828
b l 825
l y 817
a t</w> 812
it y</w> 811
t ri 801
r y</w> 796
w or 792
r u 781
a st 773
ag e</w> 771
st e 744
p re 737
s u 734
i l</w> 732
m ar 731
ti c</w> 729
c e 724
e x 720
a d</w> 719
in g 718
v e 707
el l 703
lo g 684
f i 679
m ent</w> 677
an d 672
c y 668
ph y 663
c al 658
i li 653
ar d</w> 653
an g 652
t re 649
s t</w> 643
b er 643
a u 642
ur e</w> 641
is m</w> 640
d e</w> 639
c u 637
is t</w> 631
f o 629
f l 621
c i 618
si on</w> 613
v en 608
g h 607
a k 604
e n</w> 604
i t</w> 598
on e</w> 597
t h</w> 590
t e</w> 589
d ae</w> 589
w h 584
t ro 569
g re 568
b u 567
or der</w> 567
m an 563
p l 559
c an 558
i z 556
s er 552
i um</w> 551
r y 542
s s 541
g o 539
e le 538
g e</w> 537
d er 536
b al 528
h a 527
an th 526
an d</w> 525
ac k</w> 522
an t</w> 518
v er</w> 517
it e</w> 514
i o 513
d ro 509
f er 508
at h 505
i an</w> 504
m in 504
d a 503
an ce</w> 503
l in 498
m an</w> 495
at a</w> 494
s al 491
m e</w> 490
e l</w> 489
c re 485
t ra 483
com m 479
s ub 478
ti s</w> 478
l l 477
en ce</w> 477
p lan 475
g e 474
c k 469
di s 466
co l 462
is h</w> 460
or y</w> 458
as e</w> 458
oo d</w> 457
p er</w> 456
e a</w> 455
t u 454
ac h 453
n i 450
c la 448
a v 447
p en 447
u r</w> 437
p or 436
tre e</w> 435
to r</w> 434
p ri 433
m y 432
t ing</w> 430
c k</w> 430
m al 428
t en 428
f e 428
at er</w> 427
m u 424
c er 424
b er</w> 424
b ar 421
st r 421
k er</w> 418
la r</w> 418
us e</w> 416
b ro 415
il l 412
g ro 411
in ess</w> 411
o s 409
b re 408
w a 406
di c 404
si a</w> 402
u t</w> 401
lo w</w> 399
o b 394
d ing</w> 394
r in 392
o ph 392
c lo 389
h or 387
ic e</w> 387
p e</w> 386
m at 384
ar i 384
p a 383
w er</w> 382
c a 378
st er</w> 378
ch o 378
g i 377
k e 377
in ter 377
c y</w> 376
p an 375
u ro 374
c ro 369
th er 369
p la 367
ac k 367
f lo 362
ig h 362
t r 361
en ess</w> 360
at or</w> 359
sh i 359
ti ve</w> 357
gh t</w> 353
t in 351
m a</w> 350
p le 349
st er 349
t y 348
ar ia</w> 348
li a</w> 347
el l</w> 347
t t 346
i r</w> 344
p al 343
st ri 342
m et 341
p in 341
un d</w> 341
o d 339
s k 339
c ap 334
d u 333
m us 329
t or 329
h i 329
f ish</w> 329
al is</w> 329
s ch 326
t ur 326
co un 326
l u 324
p y 323
on al</w> 322
am er 322
t a</w> 320
d uc 320
b a 320
log y</w> 320
l ine</w> 319
c at 319
k ing</w> 319
i al</w> 318
g ar 318
s ti 316
b ri 316
ste m</w> 316
id e</w> 315
i de 314
c ul 311
b ir 310
es t</w> 309
d y 307
e p 306
ro o 306
b ra 304
sh o 304
ph al 303
an a</w> 300
l y</w> 299
u p</w> 298
w ar 298
ele c 297
ic al</w> 295
a s</w> 294
k e</w> 294
s h</w> 293
d a</w> 293
d en 293
r am 292
sy stem</w> 292
l or 291
s en 290
p le</w> 290
ro n 290
m i 289
t us</w> 289
w ater</w> 289
f ac 289
an ti 289
ch ar 289
r en 288
g al 287
w ood</w> 287
g er 285
th e 285
em ent</w> 283
m er 282
m or 282
la tion</w> 282
di um</w> 280
l am 279
amer ic 279
d y</w> 278
r a</w> 277
t om 277
in t</w> 277
r h 274
re d</w> 272
s n 271
c ent 271
o x 270
s w 269
po ly 269
f t</w> 268
th e</w> 268
t ran 264
le t</w> 264
al es</w> 263
ber ry</w> 263
ch i 261
b lo 260
wh ite</w> 260
s on 259
u ri 259
m il 258
e g 258
ar ter 258
m ac 257
t on 257
er o 257
ch e 256
plan t</w> 256
v al 255
u e</w> 254
m en 253
s ur 253
b an 253
w in 253
c us</w> 252
as t</w> 252
ir e</w> 251
s qu 249
ac id</w> 247
ab le</w> 247
p u 245
h al 245
w il 245
us h</w> 245
ell a</w> 245
g lo 244
c ur 244
b ut 244
ph o 244
us ness</w> 244
un it</w> 243
n um 242
es e</w> 242
j o 241
f ic 241
li c 241
m is 240
ak e</w> 240
shi p</w> 240
s co 239
w n</w> 239
t ure</w> 238
in a</w> 236
j u 235
th o 235
gra ss</w> 235
g n 234
f la 233
m ic 232
un d 232
ul a</w> 232
ab ili 229
da y</w> 229
a m</w> 228
li c</w> 228
a k</w> 227
m ag 227
at us</w> 227
bo o 227
cla ss</w> 227
ch a 226
d ri 223
th y 223
bl ack</w> 223
s m</w> 222
iz ation</w> 222
n er 220
p ap 219
c am 219
f re 219
ol d</w> 218
comm on</w> 218
p us</w> 217
c ra 217
b ur 217
f f</w> 217
al e</w> 217
st ra 216
le a 216
c in 215
g er</w> 214
d in 214
or a</w> 214
g in 213
si l 213
o ff 212
s a</w> 212
h em 212
g on 211
for m 211
e d 210
t an 210
v o 210
h er 210
h ar 209
b ac 208
ho use</w> 208
r e</w> 207
i ri 207
l ing</w> 207
p ine</w> 207
t rac 207
as s 207
we ed</w> 207
p at 206
y c 204
ti on 204
ser v 204
st o 203
bal l</w> 203
e y 202
t al 202
ra l</w> 202
s el 201
h om 201
la w</w> 201
ic a</w> 201
c al</w> 200
v ir 200
b or 200
f ri 200
re c 200
li ght</w> 200
americ an</w> 200
a z 199
p ter 199
f u 199
ti me</w> 199
lan d</w> 199
r at 198
l en 198
b en 198
b ul 198
n or 197
d ra 197
st re 197
p et 196
ac e</w> 196
s or 195
l on 195
c a</w> 195
g am 194
g y 193
s on</w> 192
s si 192
p rin 192
gra ph 192
fer n</w> 192
e u 191
ur us</w> 191
e st 190
b on 190
b le</w> 190
il e</w> 190
sy n 190
g la 189
e qu 189
d es 189
k et</w> 189
f in 189
o us</w> 188
c ri 188
w al 188
al ity</w> 188
ra di 188
is h 188
is ation</w> 188
el li 188
m ul 187
abili ty</w> 187
s ol 185
f al 185
de n</w> 185
pro c 185
num ber</w> 185
p ic 184
at om 184
bo ard</w> 184
m as 183
p ur 183
y el 182
g an 182
ve in</w> 182
igh t</w> 182
p ul 181
el d</w> 181
sp ec 181
oc k</w> 181
g ran 180
f ul 180
f oo 180
ati c</w> 180
i st 179
b r 179
li s</w> 179
t ar 178
hy dro 178
t le</w> 177
te le 177
l er</w> 176
p p 176
n a 176
b as 176
roo m</w> 176
p lo 175
n er</w> 175
d om 175
in di 175
o il</w> 174
c en 173
c le</w> 173
b at 173
un i 173
flo wer</w> 173
bir d</w> 173
l at 172
p per</w> 171
t em 171
c ir 171
ch lor 171
he ad</w> 171
op ter 171
g ol 170
c le 170
t s</w> 169
n a</w> 169
h ol 169
ati ve</w> 169
g a 168
f le 168
mic ro 168
c as 167
in t 167
di se 167
s we 166
ti a</w> 166
b it 165
f a 165
il l</w> 165
se a</w> 165
lea f</w> 165
l ar 164
n on 164
c tion</w> 164
f e</w> 164
f ar 163
om et 162
su per 162
n ing</w> 161
st om 161
th ro 161
ent al</w> 161
dise ase</w> 161
z o 160
at ing</w> 160
li um</w> 160
po si 160
a gen 158
d ge</w> 158
li ty</w> 158
co lo 158
sp or 158
e ar 157
en sis</w> 157
st or 157
ro n</w> 156
em ia</w> 156
ta in</w> 156
ce phal 156
wa y</w> 156
d ness</w> 155
v ol 155
in us</w> 155
com p 155
gra m</w> 155
s em 154
po t 154
r un 153
f un 153
ti v 153
po li 153
hy per 153
fi eld</w> 153
en g 152
o per 151
p it 150
et ary</w> 150
uc k 150
ac h</w> 149
ch in 149
phy ll 149
i di 148
e uro 148
er a</w> 148
al y 148
ke y</w> 148
us t</w> 147
sh e 147
lan gu 147
ide s</w> 147
r ing</w> 146
r ub 146
o usness</w> 146
fl y</w> 146
yel low</w> 146
s ar 145
t ary</w> 145
n ut</w> 145
c ell</w> 145
x i 145
er y</w> 145
ati onal</w> 145
elec tro 145
s tic 144
c li 144
sc i 144
bl ue</w> 144
s po 143
l ac 143
st a 143
fl u 143
s ph 142
s oc 142
at o 142
fo lia</w> 142
b om 141
le p 141
ec t</w> 141
ven a</w> 141
l l</w> 140
ti dae</w> 140
oc ar 140
f ra 139
le t 139
p s</w> 138
w he 138
k er 138
ph or 138
atom ic</w> 138
langu age</w> 138
mon etary</w> 137
i or</w> 136
m us</w> 136
p h</w> 136
d on 136
an t 136
ch ro 136
pre s 136
ven ess</w> 136
e th 135
t w 135
t ub 135
d re 135
v is 135
b la 135
en o 135
ph i 135
wor k</w> 135
p on 134
j un 134
v ul 133
f ire</w> 133
as h</w> 133
wor t</w> 133
p sy 132
n am 132
ar t</w> 132
tran s 132
a ir</w> 131
s an 131
t on</w> 131
er al</w> 131
st ro 131
be an</w> 131
vi sion</w> 131
t es</w> 130
en d 130
en ti 130
ic k 130
po int</w> 130
m ach 129
s ul 129
e e</w> 129
w at 129
ut e</w> 129
m er</w> 128
o ver 128
h um 128
w ing</w> 128
le g 128
bo x</w> 128
tic al</w> 128
ast er</w> 128
v it 127
co c 127
co ur 127
as si 127
hy po 127
or i 126
oo l</w> 126
log ist</w> 126
s om 125
t o</w> 125
sp e 125
ad e</w> 125
gre en</w> 125
elec tri 125
o l</w> 124
l a</w> 124
g ri 124
p ra 124
t et 124
d le</w> 124
b ack</w> 124
a si 123
m el 123
b us 123
li dae</w> 123
ch am 123
sn ake</w> 123
sel f</w> 123
p ub 122
t ation</w> 122
ta il</w> 122
l us</w> 121
an us</w> 121
le ss 121
mo un 121
wil d</w> 121
r us</w> 120
u re 120
en cy</w> 120
do g</w> 120
m y</w> 119
e v 119
ig h</w> 119
anth us</w> 119
arter y</w> 119
g o</w> 118
h on 118
ch an 118
par t 118
ill a</w> 118
s mo 117
n ia</w> 117
u d 117
a ut 116
o d</w> 116
s li 116
g us</w> 116
n ec 116
w ri 116
ar ch</w> 116
i p 115
c ry 115
le d</w> 115
di a</w> 115
bi o 115
fic ation</w> 115
y s</w> 114
d ru 114
v ing</w> 114
ar c 114
at um</w> 114
ac tion</w> 114
ang e</w> 114
m it 113
o ut 113
b ush</w> 113
f ir 113
er ing</w> 113
an o 113
ch er</w> 113
bo dy</w> 113
ath er</w> 113
y er</w> 112
a po 112
e sis</w> 112
e ff 112
p tion</w> 112
n y</w> 112
b ran 112
at h</w> 112
th or 112
pe a</w> 112
bi t</w> 112
d an 111
b e</w> 111
al ism</w> 111
st em 111
li n</w> 111
se t</w> 111
str uc 111
pap er</w> 111
serv ice</w> 111
graph y</w> 111
s in 110
l er 110
g y</w> 110
c lu 110
u al</w> 110
in f 110
or gan 110
st one</w> 110
per son</w> 110
do ub 110
mu si 110
ful ness</w> 110
a ph 109
m em 109
l eness</w> 109
d ac 109
b a</w> 109
w i 109
ch er 109
de f 109
r um</w> 108
i on</w> 108
m id 108
s us</w> 108
ac c 108
li z 108
si n</w> 108
ne w 108
wor m</w> 108
y l 107
r ing 107
a e 107
a x 107
m ati 107
s ing</w> 107
h igh</w> 107
f ro 107
se con 107
sp er 107
gu e</w> 107
bi lity</w> 107
m un 106
l ut 106
g ram 106
p to 106
c ar</w> 106
v ic 106
b one</w> 106
un der 106
ati on 106
s er</w> 105
p a</w> 105
n e</w> 105
h am 105
ri c</w> 105
a de 104
s tic</w> 104
b in 104
b us</w> 104
b le 104
k in 104
oo d 104
hor se</w> 104
s un 103
s um 103
l d</w> 103
p ing</w> 103
n u 103
n it 103
is e</w> 103
moun tain</w> 103
y a</w> 102
i aceae</w> 102
m es 102
o ak</w> 102
s le 102
g ast 102
c it 102
st at 102
ch em 102
phy l 102
gro und</w> 102
euro pe 102
r ate</w> 101
i tis</w> 101
e pi 101
b ack 101
f il 101
id a</w> 101
sp in 101
me dic 101
agen t</w> 101
m ili 100
e la 100
p un 100
t un 100
n at 100
u g 100
b y 100
le c 100
ab leness</w> 100
ck et</w> 100
tom y</w> 100
off ic 100
foo t</w> 100
a c</w> 99
d am 99
v in 99
b rac 99
j ap 99
or ch 99
ch or 99
ha em 99
boo k</w> 99
europe an</w> 99
th al 98
a di 97
s ation</w> 97
p si 97
t am 97
t est</w> 97
b et 97
ic s</w> 97
et y</w> 97
sc re 97
a ff 96
e f</w> 96
p se 96
n ational</w> 96
wor d</w> 96
roo t</w> 96
swe et</w> 96
part ment</w> 96
dru g</w> 96
o logy</w> 95
s y</w> 95
s am 95
e y</w> 95
p as 95
b ar</w> 95
k i 95
ar ch 95
st u 95
le m 95
sp ar 95
so u 95
for m</w> 95
ve l</w> 95
gro up</w> 95
cul us</w> 95
indi an</w> 95
a ir 94
k o 94
ti n</w> 94
al o 94
ch ry 94
si an</w> 94
pl at 94
tt le</w> 94
mach ine</w> 94
g a</w> 93
g ia</w> 93
e ar</w> 93
er 's</w> 93
ro ck</w> 93
it al</w> 93
de c 93
sch ool</w> 93
g g 92
t able</w> 92
n ar 92
v a</w> 92
v ent 92
b el 92
en se</w> 92
ur a</w> 92
sh or 92
uc le 92
y o 91
i i</w> 91
s et 91
e p</w> 91
t le 91
d oc 91
h et 91
h and</w> 91
ro w</w> 91
li g 91
ri er</w> 91
si de</w> 91
ec tion</w> 91
ut er</w> 91
ho le</w> 91
ce d 91
phy si 91
comm un 91
z e</w> 90
t ory</w> 90
v es 90
h un 90
b y</w> 90
b ab 90
li ly</w> 90
sp on 90
qu e</w> 90
um p</w> 90
cal i 90
mac ro 90
mag ne 90
doub le</w> 90
m ent 89
c o</w> 89
v ine</w> 89
k et 89
at ed</w> 89
si ve</w> 89
lo w 89
po wer</w> 89
de partment</w> 89
om a</w> 89
pre ss</w> 89
log ical</w> 89
i ron</w> 88
s ac 88
n is</w> 88
d on</w> 88
c an</w> 88
w l</w> 88
on ia</w> 88
sp i 88
ap ple</w> 88
ut h</w> 88
colo r</w> 88
c er</w> 87
en s</w> 87
at o</w> 87
te a</w> 87
su p 87
m al</w> 86
s and 86
n us</w> 86
h el 86
k no 86
al ist</w> 86
st in 86
ch ur 86
wor ld</w> 86
blo od</w> 86
o phy 85
g as</w> 85
e li 85
t ch</w> 85
d ar 85
w om 85
er y 85
st ock</w> 85
gen ce</w> 85
ra tion</w> 85
et es</w> 85
gra ph</w> 85
sy m 85
tic s</w> 85
gol den</w> 85
g en</w> 84
e us</w> 84
c ab 84
v ari 84
h oo 84
j a 84
on om 84
li m 84
si ty</w> 84
co p 84
sh ar 84
ol a</w> 84
ne uro 84
ma j 84
pre ss 84
fl or 84
fac e</w> 84
ren ch</w> 84
form es</w> 84
e di 83
t al</w> 83
k a</w> 83
er i 83
ro se</w> 83
st ate</w> 83
ph one</w> 83
th re 83
qu i 83
com pan 83
pe t</w> 83
mon o 83
omet er</w> 83
m am 82
t ru 82
b ell 82
f ron 82
en e</w> 82
ph a</w> 82
uc k</w> 82
sc or 82
ll a</w> 82
secon d</w> 82
n ic 81
ar is</w> 81
st ar</w> 81
on y 81
de v 81
ec h</w> 81
ne l</w> 81
cu lar</w> 81
arter ia</w> 81
bac ter 81
est he 81
m ing</w> 80
l un 80
p el 80
d g 80
en ter 80
at ory</w> 80
li on</w> 80
si gn 80
oc y 80
we ster 80
mus cle</w> 80
ban k</w> 80
gam e</w> 80
a f 79
g on</w> 79
p ec 79
d el 79
c at</w> 79
b ill</w> 79
j e 79
st y 79
at ri 79
ch ri 79
he ad 79
op sis</w> 79
cor n</w> 79
sa u 79
bre ad</w> 79
phyll um</w> 79
psy cho 79
electri c</w> 79
less ness</w> 79
z y 78
a h</w> 78
p ac 78
t ac 78
d ol 78
h and 78
an ese</w> 78
di o 78
mo th</w> 78
qu e 78
ta x</w> 78
bl ack 78
ner ve</w> 78
ey e</w> 78
chur ch</w> 78
s no 77
n y 77
n al</w> 77
d or 77
c ase</w> 77
b ed</w> 77
w el 77
ti onal</w> 77
st al 77
ch ec 77
di g 77
sc ri 77
par ty</w> 77
ta x 77
dro me</w> 77
sub order</w> 77
vir gin 77
fu l</w> 77
fal se</w> 77
z z 76
i v 76
m ic</w> 76
o li 76
s at 76
g um</w> 76
g oo 76
c el 76
v an 76
v el 76
ar ea</w> 76
al ization</w> 76
re lation</w> 76
li fe</w> 76
di rec 76
et te</w> 76
ad o 76
sy l 76
plan e</w> 76
coun ter 76
proc ess</w> 76
cali for 76
s la 75
p ti 75
c ut 75
v ac 75
b il 75
b at</w> 75
j ack 75
f ly 75
in o 75
en a</w> 75
re l</w> 75
pro gram</w> 75
cu ri 75
ox y 75
wester n</w> 75
r um 74
f ran 74
en d</w> 74
an im 74
ac o 74
le u 74
lo ck</w> 74
ph en 74
pro te 74
ang le</w> 74
ath er 74
fe ver</w> 74
sil ver</w> 74
i us</w> 73
g ly 73
p ig 73
ti st</w> 73
ti sm</w> 73
al isation</w> 73
ri ght</w> 73
le s</w> 73
lo o 73
se cre 73
ap e</w> 73
con tro 73
oc e 73
ne t</w> 73
gu n</w> 73
ther n</w> 73
ide a</w> 73
y l</w> 72
n ig 72
d al 72
c ake</w> 72
h u 72
k n 72
in ation</w> 72
ti l 72
at ure</w> 72
re la 72
ch us</w> 72
si m 72
un it 72
de d</w> 72
ne w</w> 72
do wn</w> 72
vi l</w> 72
od on 72
coun t</w> 72
mul ti 72
comp uter</w> 72
a x</w> 71
o th</w> 71
g ul 71
p in</w> 71
c lin 71
b ell</w> 71
w ood 71
k y</w> 71
in de 71
ar e</w> 71
st ation</w> 71
ri s</w> 71
le y</w> 71
de s</w> 71
se ed</w> 71
pro duc 71
ing er</w> 71
compan y</w> 71
l um 70
c ran 70
f ru 70
in d 70
ti al</w> 70
ch il 70
co tt 70
id o 70
bo at</w> 70
so ph 70
do m</w> 70
ba g</w> 70
but ter 70
gla ss</w> 70
tiv ity</w> 70
tub e</w> 70
fir st</w> 70
mili tary</w> 70
sau ce</w> 70
r ho 69
e k</w> 69
n et 69
n ucle 69
v ar 69
h an 69
b is 69
on ic</w> 69
co ck 69
se x 69
qu ar 69
per i 69
car d</w> 69
im mun 69
ha ir</w> 69
ge o 69
os a</w> 69
z e 68
a p</w> 68
p li 68
p run 68
th ec 68
po st 68
bo y</w> 68
sp ace</w> 68
qu er 68
ad en 68
so r</w> 68
rac e</w> 68
bl u 68
ing s</w> 68
ell er</w> 68
my r 68
cer e 68
met er</w> 68
pho to 68
syn drome</w> 68
bus iness</w> 68
r us 67
a il</w> 67
w n 67
f t 67
di dae</w> 67
th er</w> 67
po w 67
po st</w> 67
ma ker</w> 67
cu p</w> 67
ak er</w> 67
gre at</w> 67
wa ve</w> 67
cro ss</w> 67
hom e</w> 67
pub lic</w> 67
s uc 66
p t</w> 66
p il 66
d s</w> 66
d war 66
b ic 66
re d 66
ch ick 66
le av 66
th i 66
he li 66
vi o 66
for ce</w> 66
fl ora</w> 66
ca p</w> 66
bom b</w> 66
cher ry</w> 66
a bo 65
o ff</w> 65
s es 65
s al</w> 65
n ic</w> 65
n av 65
d ding</w> 65
b un 65
w it 65
in du 65
an um</w> 65
an ism</w> 65
st ance</w> 65
li sh</w> 65
co o 65
co ff 65
ma ster</w> 65
pl ate</w> 65
io usness</w> 65
dro n</w> 65
por t</w> 65
wom an</w> 65
r hy 64
a u</w> 64
m ut 64
g an</w> 64
e ch 64
d ance</w> 64
c ac 64
f ol 64
ar m 64
am p</w> 64
ur y</w> 64
as h 64
to x 64
ad ing</w> 64
me di 64
dis order</w> 64
ther ap 64
fac tor</w> 64
the ory</w> 64
vir us</w> 64
posi tion</w> 64
cour t</w> 64
pse u 64
unit ed</w> 64
g ir 63
c ast 63
u tion</w> 63
u lar</w> 63
b ra</w> 63
er s</w> 63
an cy</w> 63
ti um</w> 63
st and 63
ra t</w> 63
se c 63
sp an 63
he ar 63
pro f 63
te x 63
sa urus</w> 63
min i 63
pal m</w> 63
int elli 63
whe el</w> 63
musi c</w> 63
ug h</w> 63
jap anese</w> 63
y n 62
s ap 62
p es</w> 62
u ral</w> 62
f er</w> 62
f ood</w> 62
si g 62
di vision</w> 62
col um 62
hal f</w> 62
jo int</w> 62
pur ple</w> 62
contro l</w> 62
leav ed</w> 62
z er</w> 61
y ing</w> 61
a er 61
m ental</w> 61
o id</w> 61
e lo 61
e per</w> 61
d al</w> 61
c um 61
c il</w> 61
c av 61
v oc 61
x y 61
b on</w> 61
w ar</w> 61
er e</w> 61
ac tin 61
re fle 61
is er</w> 61
ic ul 61
ag o</w> 61
se d</w> 61
sp iri 61
um ent</w> 61
ace a</w> 61
au str 61
ci al</w> 61
gar den</w> 61
sho t</w> 61
eng lish</w> 61
stic k</w> 61
r he 60
a qu 60
o m</w> 60
c ub 60
an aly 60
st ar 60
ac et 60
re si 60
gen ti 60
is o 60
bo t 60
ec e</w> 60
be et 60
wh it 60
bu g</w> 60
pri m 60
gi ant</w> 60
pin us</w> 60
sk in</w> 60
py ro 60
ep ing</w> 60
lon g</w> 60
pp ing</w> 60
opter is</w> 60
oper ation</w> 60
soc ial</w> 60
vul gar 60
a fri 59
c s</w> 59
c and 59
f ur 59
al ian</w> 59
si on 59
ra y</w> 59
ne y</w> 59
hy d 59
do g 59
pi pe</w> 59
fe der 59
hi p 59
lam p</w> 59
mil k</w> 59
gy m 59
foo t 59
dac ty 59
magne tic</w> 59
dwar f</w> 59
intelli gence</w> 59
a sis</w> 58
o ut</w> 58
s ati 58
s ing 58
g et 58
b ing</w> 58
f em 58
in um</w> 58
ro ad</w> 58
li gh 58
lo t</w> 58
gen eral</w> 58
om y 58
ne g 58
so li 58
for e 58
bl in 58
can ad 58
tet ra 58
orch id</w> 58
beet le</w> 58
s mal 57
g ood</w> 57
t ec 57
n ight</w> 57
u lo 57
f rench</w> 57
in e 57
ti m 57
ac ro 57
li qu 57
th ir 57
ec onom 57
ad er</w> 57
per son 57
he x 57
sc ale</w> 57
te ch 57
ho us 57
mar k</w> 57
mar ket</w> 57
lin ess</w> 57
mu st 57
ba si 57
uri a</w> 57
glo ss 57
cra b</w> 57
pot ato</w> 57
ocar pus</w> 57
g or 56
p ent 56
d o</w> 56
d ry 56
c ity</w> 56
u p 56
j a</w> 56
j am 56
er ia</w> 56
an e</w> 56
or ange</w> 56
ul t</w> 56
se curi 56
he art</w> 56
bi um</w> 56
ast er 56
au di 56
au to 56
anth em 56
sho p</w> 56
fre e</w> 56
trac t</w> 56
sci ence</w> 56
i es</w> 55
i ana</w> 55
m ine</w> 55
g ar</w> 55
e w</w> 55
t ness</w> 55
d d 55
d ut 55
d 's</w> 55
h en 55
w o 55
k a 55
ro po 55
st oc 55
at t 55
co at</w> 55
lo r</w> 55
ra g 55
ph us</w> 55
om yc 55
mo v 55
mo use</w> 55
ver n 55
cor d</w> 55
su it</w> 55
cal li 55
bu il 55
blo ck</w> 55
sco pe</w> 55
chin ese</w> 55
i x</w> 54
m on</w> 54
e m</w> 54
c rac 54
v et 54
w est</w> 54
en cephal 54
ph on 54
de li 54
par tic 54
be ar 54
ve lo 54
fo li 54
fl am 54
fer a</w> 54
o t</w> 53
s and</w> 53
l uc 53
g land</w> 53
t ab 53
n ut 53
d oo 53
c ing</w> 53
u d</w> 53
v as 53
h ab 53
k in</w> 53
st ant</w> 53
ch ing</w> 53
ch ange</w> 53
am o 53
th ri 53
bo r</w> 53
sp ir 53
con di 53
ste el</w> 53
cy clo 53
ple x 53
tem por 53
m ur 52
o po 52
s man</w> 52
n on</w> 52
n ed</w> 52
d ata</w> 52
c ad 52
v us</w> 52
b in</w> 52
b uc 52
k s</w> 52
k ing 52
f as 52
la ti 52
is sion</w> 52
ic k</w> 52
qu in 52
qu ad 52
cy to 52
cu it</w> 52
da is 52
tra de</w> 52
sub class</w> 52
bar k</w> 52
bro wn</w> 52
ari us</w> 52
ty pe</w> 52
war e</w> 52
cent er</w> 52
win d</w> 52
cha in</w> 52
off ice</w> 52
chlor ide</w> 52
let ter</w> 52
pra iri 52
maj or</w> 52
prun us</w> 52
r or 51
i ti 51
m ph 51
o s</w> 51
s lo 51
e tic</w> 51
p ast 51
d der</w> 51
u gh 51
j ack</w> 51
w ol 51
in er</w> 51
an a 51
ac anth 51
re action</w> 51
le a</w> 51
ic i 51
ic um</w> 51
po und</w> 51
de ath</w> 51
et er</w> 51
sh ell</w> 51
per io 51
sc ar 51
me tho 51
so dium</w> 51
ach e</w> 51
igh t 51
ox ide</w> 51
wil low</w> 51
fun gus</w> 51
aut om 51
r ush</w> 50
a ea</w> 50
e ph 50
e an</w> 50
p ne 50
c um</w> 50
h ard</w> 50
w ine</w> 50
f rac 50
in c 50
in str 50
ti ce</w> 50
ti veness</w> 50
ar ti 50
or e</w> 50
or gan</w> 50
ph os 50
ul us</w> 50
ag us</w> 50
pe di 50
pi ece</w> 50
fo lium</w> 50
io us</w> 50
cre di 50
mat ri 50
met al</w> 50
mis sion</w> 50
wat er 50
ation s</w> 50
chem ical</w> 50
quer cus</w> 50
securi ty</w> 50
prairi e</w> 50
a y 49
o sis</w> 49
o ste 49
g un 49
e ti 49
t ry</w> 49
d us</w> 49
x ic 49
k al 49
f el 49
re a</w> 49
li st</w> 49
ch el 49
di c</w> 49
ra b 49
em a</w> 49
con ver 49
con tin 49
ho t</w> 49
bi g</w> 49
su gar</w> 49
ve n</w> 49
cal l</w> 49
ili a</w> 49
pl ac 49
ha w 49
lin gu 49
cre am</w> 49
pen d 49
ob ia</w> 49
pa y 49
pla y</w> 49
char ge</w> 49
win do 49
form ation</w> 49
wal l</w> 49
br ush</w> 49
coff ee</w> 49
s ab 48
e er</w> 48
n as 48
h igh 48
en er 48
ro y 48
li t 48
li p</w> 48
ch al 48
lo b 48
di sp 48
il a</w> 48
ic us</w> 48
po is 48
pro to 48
te dness</w> 48
pe pper</w> 48
pi e</w> 48
ver y</w> 48
ver se</w> 48
we ight</w> 48
fi re 48
au ri 48
gre en 48
iz er</w> 48
mus h 48
sch iz 48
prin ci 48
proc es 48
mas s</w> 48
dom in 48
dre ss</w> 48
clu b</w> 48
stat es</w> 48
commun ic 48
vio let</w> 48
therap y</w> 48
z i 47
r o</w> 47
s um</w> 47
e uc 47
p lic 47
b ig 47
b and</w> 47
al ia</w> 47
st a</w> 47
ac count</w> 47
re gi 47
lo ve</w> 47
gen er 47
il ing</w> 47
po le</w> 47
ter n</w> 47
to p</w> 47
com ple 47
ent ation</w> 47
te n</w> 47
me as 47
car ol 47
gra y</w> 47
we l</w> 47
sa f 47
sa w</w> 47
ly co 47
gre y</w> 47
pl um</w> 47
anth era</w> 47
mus culus</w> 47
ger y</w> 47
rh iz 47
ist le</w> 47
pp y</w> 47
soc i 47
chec k</w> 47
fly ing</w> 47
oce phal 47
fru it</w> 47
dais y</w> 47
z a</w> 46
r ent</w> 46
i ch 46
m ia</w> 46
o v 46
g lut 46
p us 46
n em 46
d ry</w> 46
c ru 46
v a 46
w ag 46
in sur 46
an s</w> 46
an te 46
or din 46
al th</w> 46
st ry</w> 46
di stri 46
id er</w> 46
to oth</w> 46
sh a 46
ne ph 46
op s</w> 46
so ft</w> 46
ma x 46
cor y 46
bl er</w> 46
dro p</w> 46
ath y</w> 46
pri v 46
hor n</w> 46
mat er 46
coun cil</w> 46
gon ia</w> 46
opter a</w> 46
esthe sia</w> 46
pow der</w> 46
chick en</w> 46
m ad 45
c ic 45
j ect</w> 45
in ing</w> 45
ar ian</w> 45
al lo 45
ro ll</w> 45
st ing</w> 45
ri dae</w> 45
di ty</w> 45
gen esis</w> 45
sp ring</w> 45
ir y</w> 45
ig n</w> 45
op us</w> 45
me chan 45
car e</w> 45
gu ard</w> 45
su e</w> 45
pl um 45
pl ace</w> 45
go vern 45
sub family</w> 45
col or 45
tu de</w> 45
bro n 45
tr ust</w> 45
stri s</w> 45
bra in</w> 45
rh in 45
fre e 45
eng ine</w> 45
sar co 45
stem on</w> 45
phyl lo 45
nat ural</w> 45
anim al</w> 45
afri can</w> 45
anthem um</w> 45
windo w</w> 45
i formes</w> 44
o u 44
e o 44
e al</w> 44
p an</w> 44
n om 44
c us 44
u a</w> 44
v ia</w> 44
b ia</w> 44
b ry 44
b uck 44
w re 44
f ish 44
ar o 44
ro d</w> 44
on idae</w> 44
li sm</w> 44
ch on 44
am ar 44
am ine</w> 44
co t</w> 44
le vel</w> 44
ra il 44
po t</w> 44
se l</w> 44
mon ey</w> 44
im per 44
ing ness</w> 44
ak ing</w> 44
bu ff 44
ther mo 44
pin k</w> 44
squ ir 44
bon d</w> 44
far e</w> 44
phyll a</w> 44
flu or 44
liz ard</w> 44
offic er</w> 44
het ero 44
califor nia</w> 44
blu e 44
mush room</w> 44
saf ety</w> 44
z ation</w> 43
y ard</w> 43
a sia</w> 43
m and 43
m ang 43
o le 43
s us 43
s ag 43
s ad 43
s tis</w> 43
g ation</w> 43
e aster 43
p t 43
p id 43
n oc 43
c et 43
c ell 43
u le</w> 43
j er 43
w berry</w> 43
k ni 43
f ig 43
f ile</w> 43
in te 43
an der</w> 43
ti s 43
ro ck 43
ro und</w> 43
ac ter 43
ch e</w> 43
ch ia</w> 43
co ho 43
di ff 43
is tic</w> 43
po d</w> 43
ter rier</w> 43
bo l 43
bo w 43
me g 43
me xic 43
par t</w> 43
cor on 43
wor ker</w> 43
fo ur</w> 43
ci um</w> 43
my x 43
flo w 43
tin a</w> 43
squ are</w> 43
sul f 43
def ense</w> 43
ced ar</w> 43
pseu do 43
instr ument</w> 43
i f 42
m ap 42
p ag 42
c l 42
c ation</w> 42
b lan 42
b and 42
j ec 42
ar tic 42
or ni 42
al pin 42
re ce 42
li ter 42
si veness</w> 42
it ch</w> 42
he at</w> 42
ho und</w> 42
bl eness</w> 42
ss ing</w> 42
inter national</w> 42
ju dg 42
cha ir</w> 42
stom a</w> 42
agen cy</w> 42
dol lar</w> 42
gir l</w> 42
doo r</w> 42
ener gy</w> 42
z one</w> 41
i led</w> 41
e ast</w> 41
p y</w> 41
t ap 41
t ed</w> 41
t ent</w> 41
n ur 41
c uc 41
u ti 41
u lation</w> 41
h at</w> 41
j um 41
w ast 41
f en 41
st age</w> 41
ri age</w> 41
it a</w> 41
po di 41
po cket</w> 41
ter y</w> 41
ter min 41
sh oo 41
mo tion</w> 41
uc a</w> 41
uc h</w> 41
sc l 41
so ur 41
par al 41
cor al</w> 41
sa ur</w> 41
ell ing</w> 41
wh is 41
dis h</w> 41
clo th 41
len s</w> 41
nor thern</w> 41
phi lo 41
nam e</w> 41
cry pto 41
organ ization</w> 41
shor t</w> 41
doc tor</w> 41
shar k</w> 41
press ure</w> 41
tru e</w> 41
fron t</w> 41
dev ice</w> 41
cott on</w> 41
i e</w> 40
i idae</w> 40
m om 40
o y 40
o th 40
p ati 40
t ag 40
n um</w> 40
v il 40
k ed</w> 40
en gin 40
or us</w> 40
or ph 40
or th 40
ro r</w> 40
st rac 40
si ck 40
co de</w> 40
di plo 40
ph ar 40
la y</w> 40
la st</w> 40
il er</w> 40
to m</w> 40
se arch</w> 40
mo tor</w> 40
op si 40
te e</w> 40
ver te 40
fi x 40
duc tion</w> 40
americ ana</w> 40
sw amp</w> 40
eg g</w> 40
ton ia</w> 40
iri s</w> 40
pet ro 40
radi o</w> 40
she et</w> 40
electro nic</w> 40
pres sion</w> 40
hum an</w> 40
smal l</w> 40
credi t</w> 40
easter n</w> 40
a en 39
s '</w> 39
e thy 39
p is 39
p ut 39
p rac 39
h ood</w> 39
w ard</w> 39
f et 39
f or</w> 39
in dic 39
al l</w> 39
ro man</w> 39
st an 39
st ag 39
on y</w> 39
on ing</w> 39
ac y</w> 39
ac ade 39
li ttle</w> 39
am ph 39
le y 39
le ss</w> 39
ph ate</w> 39
th us</w> 39
po da</w> 39
po dium</w> 39
ag ro 39
se x</w> 39
bo w</w> 39
mo ss</w> 39
oc i 39
pe n</w> 39
pe ti 39
hy n 39
ran t</w> 39
be e</w> 39
be ar</w> 39
ma il</w> 39
pri ce</w> 39
wa x</w> 39
clo th</w> 39
clo ck</w> 39
tt ed</w> 39
tur n</w> 39
sen se</w> 39
che ese</w> 39
colo ur</w> 39
tw o</w> 39
cour se</w> 39
hon ey 39
phyl um</w> 39
medic ine</w> 39
chry so 39
kni fe</w> 39
y ear</w> 38
s cho 38
g ate</w> 38
g old</w> 38
e co 38
p ack 38
b age</w> 38
j ac 38
k le</w> 38
f on 38
in s</w> 38
an gu 38
ro cket</w> 38
re spon 38
si te</w> 38
am in 38
le ag 38
le ad</w> 38
es cen 38
ph il 38
la bor</w> 38
un der</w> 38
po l 38
as y 38
se ction</w> 38
com a</w> 38
lan d 38
ne ed 38
pe ar 38
ma s</w> 38
ru le</w> 38
ex ec 38
fi t</w> 38
fi er</w> 38
cy c 38
cal end 38
fer ence</w> 38
min or</w> 38
od on</w> 38
bir th</w> 38
uri dae</w> 38
stra tion</w> 38
stre et</w> 38
radi ation</w> 38
ish ness</w> 38
tele vision</w> 38
bas s</w> 38
medic al</w> 38
offic in 38
chri st 38
thir d</w> 38
mov ement</w> 38
metho d</w> 38
insur ance</w> 38
mater ial</w> 38
r ine</w> 37
s ure</w> 37
e x</w> 37
e ag 37
p ad</w> 37
t an</w> 37
t ter</w> 37
c ence</w> 37
j uni 37
w ell</w> 37
ar ity</w> 37
al a</w> 37
al coho 37
st al</w> 37
at eness</w> 37
on o 37
on ion</w> 37
re li 37
re lig 37
li ber 37
am in</w> 37
gen t</w> 37
as s</w> 37
ul ata</w> 37
bo ttle</w> 37
mo l 37
mo r</w> 37
so uth</w> 37
rac k</w> 37
and ra</w> 37
ha z 37
comm er 37
str ing</w> 37
ill us</w> 37
bra l</w> 37
sho w</w> 37
cent ral</w> 37
win d 37
radi o 37
gran di 37
dom es 37
cir cuit</w> 37
omet ry</w> 37
cli m 37
spo t</w> 37
tub er 37
mem ory</w> 37
nit ro 37
ki e</w> 37
het er 37
bab y</w> 37
ado w</w> 37
jack et</w> 37
secre tary</w> 37
sex ual</w> 37
stand ard</w> 37
prof es 37
vulgar is</w> 37
feder al</w> 37
plex us</w> 37
roy al</w> 37
scl ero 37
m um</w> 36
o sc 36
s onal</w> 36
g as 36
g em 36
g ig 36
e ver 36
p ed</w> 36
n ast 36
n ight 36
c au 36
h ir 36
b o</w> 36
in fer 36
in sec 36
en ium</w> 36
an o</w> 36
ti e</w> 36
ro ph 36
di ab 36
th istle</w> 36
la dy</w> 36
un t</w> 36
ol y 36
ol us</w> 36
op en</w> 36
so und</w> 36
mon key</w> 36
tri ch 36
ell us</w> 36
tro p 36
sal t</w> 36
tu al</w> 36
sti tch</w> 36
bir ch</w> 36
bra ke</w> 36
tran si 36
ton gue</w> 36
but ter</w> 36
bul l 36
tele phone</w> 36
butter fly</w> 36
nucle ar</w> 36
indu stry</w> 36
span ish</w> 36
analy sis</w> 36
hip po 36
govern ment</w> 36
i le 35
o ides</w> 35
o logist</w> 35
s l 35
g le</w> 35
p es 35
t us 35
u ter 35
v ig 35
j ection</w> 35
w ash 35
f an 35
f ring 35
in ae</w> 35
an em 35
ti le</w> 35
ro ll 35
on ica</w> 35
ac t</w> 35
ac ar 35
li e 35
am phi 35
lo an</w> 35
lo ma</w> 35
po ppy</w> 35
to bac 35
sh ri 35
mo uth</w> 35
qu o 35
per sonal</w> 35
con f 35
pi d</w> 35
ma y 35
gu in 35
ta in 35
ta iled</w> 35
tic a</w> 35
pre ci 35
mar sh</w> 35
ex ter 35
man 's</w> 35
ill ary</w> 35
ke y 35
pla yer</w> 35
bri dge</w> 35
val ve</w> 35
win ter</w> 35
uni on</w> 35
spo tted</w> 35
whe at</w> 35
enti al</w> 35
leg al</w> 35
musi cal</w> 35
fro g</w> 35
fil m</w> 35
plat y 35
sno w 35
princi ple</w> 35
y x</w> 34
i po 34
a eg 34
o ver</w> 34
s ine</w> 34
s ut 34
s ni 34
g in</w> 34
g au 34
p ad 34
t es 34
t ar</w> 34
d un 34
d ate</w> 34
c ler 34
u n</w> 34
v et</w> 34
h at 34
b li 34
b ase</w> 34
k ar 34
k it 34
an om 34
al ba</w> 34
ro t</w> 34
st ati 34
ch ron 34
si um</w> 34
am us</w> 34
co u 34
la w 34
as sa 34
to p 34
ec tomy</w> 34
me lo 34
car di 34
so lar</w> 34
gra v 34
vi an</w> 34
cor relation</w> 34
su n</w> 34
wh i 34
gre e</w> 34
man i 34
man d</w> 34
sal ad</w> 34
sal ix</w> 34
col d</w> 34
cla ssi 34
pen stemon</w> 34
my o 34
dic al</w> 34
tr un 34
duc k</w> 34
ba y</w> 34
mil li 34
dri ve</w> 34
cra ft</w> 34
ben e 34
nor th</w> 34
pic ture</w> 34
stor m</w> 34
poli ce</w> 34
jun ction</w> 34
arc to 34
struc ture</w> 34
thre e</w> 34
prim ary</w> 34
pne um 34
calend ar</w> 34
s age</w> 33
g ing</w> 33
p ump</w> 33
t um</w> 33
t one</w> 33
n ation</w> 33
n ap 33
d um 33
d ent</w> 33
b ub 33
k en 33
f is 33
ti g 33
ar um</w> 33
al ness</w> 33
ro w 33
ro man 33
li sh 33
ri b 33
ch en</w> 33
co w 33
co ver 33
co st</w> 33
co ck</w> 33
le uc 33
di r 33
gen e</w> 33
ph as 33
ph ase</w> 33
th m</w> 33
th a</w> 33
is s</w> 33
ic le</w> 33
de ad</w> 33
de ck</w> 33
em an</w> 33
se al</w> 33
se as 33
he alth</w> 33
ig n 33
op e</w> 33
me at</w> 33
ho lo 33
gra pe</w> 33
be d 33
mon e</w> 33
ste ak</w> 33
fi ber</w> 33
cre ss</w> 33
dis m</w> 33
oph ora</w> 33
coun ter</w> 33
cul ture</w> 33
sho e</w> 33
cur rent</w> 33
cri min 33
stor age</w> 33
she ep</w> 33
rub ber</w> 33
phor us</w> 33
liz ation</w> 33
bet a</w> 33
refle x</w> 33
sing le</w> 33
proces sing</w> 33
map le</w> 33
escen s</w> 33
i on 32
a i</w> 32
m ir 32
m id</w> 32
m ill 32
o le</w> 32
s ory</w> 32
g et</w> 32
p idae</w> 32
d ine</w> 32
d rac 32
c es</w> 32
c ement</w> 32
b light</w> 32
w ire</w> 32
f us 32
f ast</w> 32
in idae</w> 32
en to 32
en aria</w> 32
an g</w> 32
an ter 32
an ium</w> 32
ti de</w> 32
al b 32
al li 32
st y</w> 32
st en 32
st ed</w> 32
st ru 32
st ory</w> 32
at or 32
ac a</w> 32
ac tive</w> 32
co al</w> 32
di an</w> 32
la dy 32
el m</w> 32
el le</w> 32
de a</w> 32
se at</w> 32
mo der 32
mo ther</w> 32
ad mini 32
con tract</w> 32
he n</w> 32
uc i 32
com pound</w> 32
ati dae</w> 32
do w 32
be ef</w> 32
be gonia</w> 32
no te</w> 32
cor por 32
sa v 32
tri cho 32
ru n</w> 32
log ic</w> 32
fi r</w> 32
cy an 32
cy press</w> 32
cu t</w> 32
ci vil</w> 32
ak e 32
dis k</w> 32
col a</w> 32
col ate</w> 32
col lec 32
mal e</w> 32
mal low</w> 32
hor mone</w> 32
ari aceae</w> 32
ke eper</w> 32
cap e</w> 32
coun try</w> 32
ger man</w> 32
lic a</w> 32
fla g</w> 32
mag no 32
sto p</w> 32
yel low 32
gran d</w> 32
bas ket</w> 32
bat h</w> 32
hol y</w> 32
far m</w> 32
poli tical</w> 32
spe ech</w> 32
gast ro 32
arch it 32
leu co 32
prote in</w> 32
thec us</w> 32
sig n</w> 32
austr alian</w> 32
canad ensis</w> 32
a way</w> 31
m atic</w> 31
o graphy</w> 31
g le 31
g lan 31
e ding</w> 31
e duc 31
p assi 31
t i</w> 31
t um 31
c es 31
u le 31
x anth 31
b ag 31
w ic 31
k weed</w> 31
f at 31
er t</w> 31
an i</w> 31
ti ll 31
ti sh</w> 31
ar my</w> 31
or al</w> 31
al ty</w> 31
al pha</w> 31
st on 31
on ist</w> 31
re ed</w> 31
re pres 31
li po 31
li te</w> 31
ri c 31
si onal</w> 31
am a</w> 31
co ver</w> 31
co pe</w> 31
lo ck 31
di ag 31
ph ag 31
el y 31
ur ing</w> 31
de er</w> 31
em er 31
se s</w> 31
se p 31
sp ur 31
sh el 31
ad a</w> 31
pro per 31
sc al 31
me d 31
me thy 31
ran ge</w> 31
pi lot</w> 31
vi ew</w> 31
sy stem 31
no se</w> 31
tic ket</w> 31
bl ing</w> 31
ly mph 31
wor k 31
mar ine</w> 31
ce ption</w> 31
ing er 31
wh ale</w> 31
man ag 31
bal ance</w> 31
ha ir 31
sal am 31
ge ar</w> 31
col le 31
gro und 31
cho colate</w> 31
cro wn</w> 31
pla n</w> 31
tr um</w> 31
cap it 31
duc t</w> 31
val ue</w> 31
sur face</w> 31
ass oci 31
cir cum 31
hol der</w> 31
thro m 31
stor e</w> 31
uck le</w> 31
stro ph 31
wat ch</w> 31
electri cal</w> 31
cham a 31
eff ici 31
yl on</w> 31
scre w</w> 31
lem on</w> 31
vent ri 31
kno t</w> 31
nav al</w> 31
buil ding</w> 31
communic ation</w> 31
squir rel</w> 31
tis sue</w> 31
mexic an</w> 31
z ia</w> 30
i x 30
a ver</w> 30
m ig 30
s inus</w> 30
e f 30
e on</w> 30
e ur 30
p ment</w> 30
p ut</w> 30
p ass 30
d um</w> 30
c r 30
c idae</w> 30
j as 30
k i</w> 30
f in</w> 30
in al</w> 30
ar m</w> 30
al i 30
al s</w> 30
ac ity</w> 30
re st</w> 30
li me</w> 30
si i</w> 30
co w</w> 30
di ss 30
ra m</w> 30
la ure 30
el e</w> 30
it or</w> 30
et a</w> 30
ter 's</w> 30
ag re 30
sh ir 30
ad o</w> 30
ad ren 30
con e</w> 30
con serv 30
oc er 30
op le</w> 30
ati ca</w> 30
te ach 30
me adow</w> 30
ho ur</w> 30
be ech</w> 30
pi t</w> 30
ma id 30
ff le</w> 30
cor n 30
tic us</w> 30
tic ism</w> 30
pre ssi 30
and a</w> 30
tre as 30
fo il</w> 30
min t</w> 30
ten sion</w> 30
ob ject</w> 30
tr um 30
ple uro 30
py r 30
dy nam 30
mi x 30
sur gery</w> 30
prin t</w> 30
graph ic</w> 30
equ ip 30
spec ial</w> 30
cle an 30
super ior</w> 30
idi a</w> 30
sci enti 30
dre ssing</w> 30
vis ual</w> 30
vit amin</w> 30
cham ber</w> 30
thor n</w> 30
sum mer</w> 30
sou thern</w> 30
chry s 30
ery thro 30
dev il 30
direc t</w> 30
vac cin 30
immun o 30
econom ic</w> 30
must ard</w> 30
perio d</w> 30
rab bit</w> 30
relig ious</w> 30
z ing</w> 29
a ver 29
m ate</w> 29
o ta</w> 29
s com 29
s ent 29
s so 29
t ant</w> 29
n ative</w> 29
d ock</w> 29
d asy 29
c ili 29
c amer 29
b al</w> 29
b ast 29
w on 29
k id 29
f ec 29
f um 29
f und</w> 29
f ram 29
f inger</w> 29
en er</w> 29
al ph 29
st ur 29
co g 29
di al 29
ra in 29
ra dical</w> 29
la p 29
la ge</w> 29
po d 29
as p 29
et e</w> 29
ul aria</w> 29
us tic</w> 29
to ad</w> 29
um in 29
com e</w> 29
ent alis</w> 29
me li 29
ho p</w> 29
hy gro 29
hy men 29
so il</w> 29
be er</w> 29
sa xi 29
ste p</w> 29
fi bro 29
cal y 29
ili ty</w> 29
gre ek</w> 29
pl u 29
anth ropo 29
tra ff 29
bar b 29
clo ver</w> 29
hor se 29
inter nal</w> 29
pla y 29
sk i 29
den dro 29
ger man 29
chi ef</w> 29
mil l</w> 29
boo k 29
fre qu 29
tion s</w> 29
prin ting</w> 29
eu phor 29
lep to 29
psy ch 29
stro ke</w> 29
coc cus</w> 29
nec k</w> 29
struc tion</w> 29
physi cal</w> 29
cop y</w> 29
sign al</w> 29
goo se</w> 29
chil d</w> 29
cac tus</w> 29
cav ity</w> 29
dut y</w> 29
euc aly 29
alcoho l</w> 29
infer ior</w> 29
proper ty</w> 29
equip ment</w> 29
a b</w> 28
o k 28
o ch 28
s k</w> 28
g ian</w> 28
t ape</w> 28
n o</w> 28
n ab 28
c ast</w> 28
v al</w> 28
v id 28
w inter 28
0 0 28
en ing</w> 28
an ia</w> 28
or e 28
al pine</w> 28
on to 28
ac ia</w> 28
ac ter</w> 28
li tis</w> 28
ch ap 28
le g</w> 28
lo c 28
gen cy</w> 28
ra p 28
ra ph 28
ra in</w> 28
es '</w> 28
ph er 28
el der</w> 28
it ter</w> 28
po ll 28
po pul 28
de velo 28
de gree</w> 28
sp ru 28
ec to 28
te l</w> 28
me gal 28
car t</w> 28
car pus</w> 28
car bon</w> 28
vi si 28
we ather</w> 28
ta il 28
im al</w> 28
ce ae</w> 28
ex am 28
ex per 28
ve get 28
fi g</w> 28
ang io 28
fo ur 28
ele ph 28
ele ment</w> 28
da y 28
comm ission</w> 28
ge on</w> 28
my ri 28
bre ak 28
oph ag 28
clo ud</w> 28
ca es 28
ther m 28
stri p</w> 28
stri al</w> 28
bra ssi 28
ger anium</w> 28
che st 28
jo h 28
stra wberry</w> 28
tion ary</w> 28
pter is</w> 28
len e</w> 28
stre ss</w> 28
lon g 28
ful l</w> 28
tem per 28
lar ge</w> 28
spor t</w> 28
sta ff</w> 28
dan cing</w> 28
bel t</w> 28
ves ti 28
ery th 28
bacter ia</w> 28
sno w</w> 28
produc t</w> 28
tox in</w> 28
blin d</w> 28
wo ol 28
omyc etes</w> 28
anter ior</w> 28
i re 27
a w 27
a uc 27
g li 27
g age</w> 27
p av 27
c t</w> 27
u de</w> 27
u ght</w> 27
v y</w> 27
h a</w> 27
j et</w> 27
w rench</w> 27
f light</w> 27
in k</w> 27
in ary</w> 27
er c 27
an ch 27
ar ab 27
or tho 27
at lan 27
ac ute</w> 27
ac tivity</w> 27
re cord</w> 27
re search</w> 27
li an</w> 27
ri ver</w> 27
ch est</w> 27
si der 27
am y 27
di sh 27
es cence</w> 27
la bi 27
la gin 27
is s 27
et ing</w> 27
om e</w> 27
om ys</w> 27
ul um</w> 27
em plo 27
us ti 27
ter ror 27
id enti 27
sp ic 27
sp ider</w> 27
ap pro 27
con gre 27
pro gram 27
ne o 27
ne e</w> 27
pe p 27
car o 27
be am</w> 27
bl en 27
su ff 27
ce le 27
cy cle</w> 27
ang i 27
ang er</w> 27
bu re 27
ry s</w> 27
sal es</w> 27
sal mon</w> 27
tra in</w> 27
ten nis</w> 27
bro om</w> 27
mat ter</w> 27
ari idae</w> 27
pla s 27
sk i</w> 27
cat ho 27
sti tu 27
dy nast 27
den dron</w> 27
sen si 27
fic i 27
mis si 27
dri ll</w> 27
thy ro 27
cin nam 27
hom o 27
prin ter</w> 27
graph er</w> 27
hol ly</w> 27
cephal us</w> 27
fun ction</w> 27
less er</w> 27
inf ection</w> 27
mid dle</w> 27
scre en</w> 27
sac char 27
mam mal</w> 27
gly cer 27
inde x</w> 27
omy co 27
diff er 27
flow ering</w> 27
if ic</w> 27
wast e</w> 27
insec t</w> 27
diab etes</w> 27
tobac co</w> 27
archit ec 27
dynast y</w> 27
r i</w> 26
i sia</w> 26
s i</w> 26
s me 26
e lia</w> 26
d ental</w> 26
d ust</w> 26
c un 26
c id 26
u l</w> 26
u ation</w> 26
v an</w> 26
v ag 26
h us 26
h ap 26
b elli 26
j i 26
w hole</w> 26
k y 26
k en</w> 26
in ten 26
in formation</w> 26
en ia</w> 26
en do 26
an nu 26
ti es</w> 26
ar a</w> 26
ar bor 26
al ter 26
al op 26
al lium</w> 26
ro se 26
st eno 26
ac in 26
ac us</w> 26
re sin</w> 26
re spir 26
li t</w> 26
ch i</w> 26
ch it 26
am ia</w> 26
co effici 26
un g</w> 26
po ster 26
ul atus</w> 26
em ati 26
ter m</w> 26
id aceae</w> 26
id ence</w> 26
ag ri 26
to e</w> 26
bo g</w> 26
bo le 26
bo ur 26
sh ock</w> 26
mo d 26
qu anti 26
qu arter 26
he ath</w> 26
op athy</w> 26
hy p 26
car ia</w> 26
so da</w> 26
pi on</w> 26
ma in</w> 26
gu lar</w> 26
sa int</w> 26
ru b</w> 26
ve st 26
ang e 26
au thor 26
fl at 26
tro ph 26
gre s 26
iz a</w> 26
der ma</w> 26
ha m</w> 26
sal e</w> 26
ck er</w> 26
tu ce</w> 26
tu ral</w> 26
rin a</w> 26
cro ss 26
tr uck</w> 26
pal e 26
od or 26
tur tle</w> 26
hal l</w> 26
fla g 26
fla t</w> 26
dri ver</w> 26
stra ight</w> 26
pat ri 26
fin an 26
fal l</w> 26
ist ry</w> 26
gol f</w> 26
ear th</w> 26
pit ch</w> 26
ant i</w> 26
mem bran 26
epi lep 26
pas s</w> 26
nar row</w> 26
ocy te</w> 26
del ph 26
distri bu 26
neph ro 26
cloth es</w> 26
oy ster</w> 26
camer a</w> 26
frequ ency</w> 26
therm ometer</w> 26
chest nut</w> 26
coeffici ent</w> 26
z in 25
i o</w> 25
i folia</w> 25
g ic</w> 25
g ger</w> 25
e chin 25
p tus</w> 25
t v</w> 25
n yc 25
d le 25
d aceae</w> 25
d rin 25
d rum</w> 25
h ur 25
b ad 25
k ill 25
f an</w> 25
f at</w> 25
f und 25
in ia</w> 25
an emia</w> 25
ti co 25
al e 25
al er</w> 25
at e 25
at ro 25
at ten 25
on a</w> 25
re gul 25
li p 25
li sation</w> 25
ri a</w> 25
ri gh 25
ch im 25
si x 25
lo ph 25
lo use</w> 25
lo tus</w> 25
di ver 25
es tion</w> 25
el us</w> 25
de l</w> 25
et um</w> 25
ul der</w> 25
em p 25
us a</w> 25
us er</w> 25
to wn</w> 25
ap par 25
con cer 25
he pati 25
op per</w> 25
ho g</w> 25
hy dra 25
car i 25
car din 25
so ap</w> 25
ma t</w> 25
ma king</w> 25
ff er</w> 25
tri al</w> 25
ex plo 25
and ro 25
cy no 25
fo x</w> 25
fo x 25
can cer</w> 25
ser i 25
anth es</w> 25
ath ing</w> 25
comm it 25
fe ather</w> 25
met ry</w> 25
hi p</w> 25
ep ic 25
rh ag 25
son ia</w> 25
squ ash</w> 25
pu dding</w> 25
tan k</w> 25
iri sh</w> 25
bul l</w> 25
gy ro 25
pul mon 25
uni ver 25
sem i 25
let tuce</w> 25
assi um</w> 25
sli p</w> 25
aph asia</w> 25
net tle</w> 25
quar ter</w> 25
cere bral</w> 25
spiri t</w> 25
rhe a</w> 25
bot tom</w> 25
hous e 25
stoc k 25
att ack</w> 25
partic le</w> 25
matri x</w> 25
comple x</w> 25
carol in 25
wag on</w> 25
need le</w> 25
christ mas</w> 25
alph ab 25
traff ic</w> 25
spru ce</w> 25
emplo y 25
z oo 24
r ut 24
a f</w> 24
a ur 24
m ec 24
o zo 24
s uckle</w> 24
l i</w> 24
l ub 24
g ut 24
e ball</w> 24
e ering</w> 24
p um 24
n au 24
d ' 24
d at 24
d ent 24
c ath 24
h is 24
h im 24
h old</w> 24
b ap 24
f ut 24
f av 24
f inger 24
en si 24
an i 24
al mon 24
st and</w> 24
at ry</w> 24
on g</w> 24
ac tor</w> 24
re vol 24
li th 24
si t 24
lo wer</w> 24
ra ti 24
ph lo 24
il us</w> 24
is cus</w> 24
it o</w> 24
de mo 24
et o 24
sp re 24
mo tor 24
qu et</w> 24
ad ver 24
op la 24
me th 24
ho sp 24
car pet</w> 24
so ft 24
par is</w> 24
do r</w> 24
do or 24
be aut 24
we dding</w> 24
sa m</w> 24
sa x 24
tri dge</w> 24
wor ship</w> 24
mar riage</w> 24
ve si 24
ci an</w> 24
iz ed</w> 24
ser ve</w> 24
ss a</w> 24
cre eping</w> 24
dis c</w> 24
my co 24
str a</w> 24
str um</w> 24
os us</w> 24
bre ak</w> 24
oph thal 24
pa in 24
flo or</w> 24
od y 24
cap ital</w> 24
duc tor</w> 24
gar lic</w> 24
bir th 24
the ater</w> 24
tom ato</w> 24
rh us</w> 24
sn ap 24
cent ro 24
blo od 24
ban e</w> 24
but ton</w> 24
boo t</w> 24
cam p</w> 24
hem i 24
ed ness</w> 24
har mon 24
spec i 24
na il</w> 24
cir cle</w> 24
pot assium</w> 24
rub us</w> 24
flu x</w> 24
chro mo 24
jun c 24
wri ter</w> 24
wri ting</w> 24
eff ect</w> 24
sper mum</w> 24
pse ud 24
ophy ta</w> 24
hoo k</w> 24
psycho logy</w> 24
fran c</w> 24
leu k 24
foli us</w> 24
wol f</w> 24
philo soph 24
opsi da</w> 24
honey suckle</w> 24
exec u 24
anem one</w> 24
laure l</w> 24
saxi fra 24
euphor bia</w> 24
gres sion</w> 24
z en</w> 23
r ust</w> 23
i as</w> 23
i ron 23
m p</w> 23
o se</w> 23
l li 23
g i</w> 23
g om 23
g ang 23
e i 23
e um</w> 23
e ve</w> 23
e ven 23
p al</w> 23
p ack</w> 23
d ar</w> 23
d ence</w> 23
c ent</w> 23
c ig 23
u ch 23
v or 23
b am 23
b es 23
b id 23
b ru 23
b ass 23
k o</w> 23
er n 23
er ation</w> 23
an e 23
ar tem 23
ar ts</w> 23
al l 23
al der</w> 23
ro t 23
ro of</w> 23
st e</w> 23
st es</w> 23
ac le</w> 23
re al</w> 23
re ver 23
re cor 23
li ver</w> 23
li tho 23
ri um</w> 23
ri ce</w> 23
ch ol 23
si ght</w> 23
am mon 23
le ft</w> 23
le ader</w> 23
lo bium</w> 23
di p 23
di et</w> 23
gen ital</w> 23
ph ili 23
po p 23
po in 23
po ss 23
as cen 23
em e</w> 23
id al</w> 23
se qu 23
bo x 23
ap er</w> 23
ap or 23
mo on</w> 23
mo ur</w> 23
ab sor 23
lan ding</w> 23
op tical</w> 23
pe ople</w> 23
car bon 23
so up</w> 23
do wn 23
ran g 23
gra de</w> 23
be ard</w> 23
pi ano</w> 23
no tation</w> 23
we e 23
we ar</w> 23
wor king</w> 23
ex pen 23
ex erc 23
ve h 23
fi b 23
cal cium</w> 23
ath emati 23
ge e</w> 23
cer ti 23
cer at 23
gro w 23
os cope</w> 23
clo sed</w> 23
ple as 23
ster ia</w> 23
ep ig 23
son g</w> 23
eg y 23
glo bu 23
sco tch</w> 23
ju ice</w> 23
trac k</w> 23
trac tion</w> 23
yc le</w> 23
tion ist</w> 23
pter a</w> 23
rat tle 23
sol anum</w> 23
hydro chloride</w> 23
chlor o 23
gol den 23
cas u 23
bit ter 23
run ning</w> 23
bom b 23
fra x 23
new s</w> 23
gast ric</w> 23
pun c 23
tam ar 23
ki lo 23
sup port</w> 23
kno w 23
sym bo 23
af ter 23
pig eon</w> 23
rus sian</w> 23
fol k</w> 23
whit e 23
person ality</w> 23
audi tory</w> 23
encephal itis</w> 23
tempor al</w> 23
pois on</w> 23
plic ation</w> 23
sad dle</w> 23
hyn chus</w> 23
leag ue</w> 23
eag le</w> 23
throm bo 23
agre ement</w> 23
maid en 23
atlan tic</w> 23
respir atory</w> 23
beaut y</w> 23
z er 22
y ar 22
r ar 22
i m</w> 22
i fer 22
a w</w> 22
a ve</w> 22
a vi 22
a id</w> 22
a ena</w> 22
m ium</w> 22
o t 22
o logical</w> 22
g um 22
g lu 22
g az 22
e de 22
e 's</w> 22
p ia</w> 22
n es 22
d ary</w> 22
c on</w> 22
c rat 22
b an</w> 22
w a</w> 22
w as 22
w age</w> 22
k u 22
k el 22
k ia</w> 22
k ang 22
f low</w> 22
0 s</w> 22
er is</w> 22
er ror</w> 22
an n 22
ar i</w> 22
or ig 22
or ity</w> 22
al g 22
al ec 22
st ud 22
ac hy 22
ac coun 22
re tic 22
re ment</w> 22
li ving</w> 22
ri f 22
ch as 22
ch et</w> 22
ch lam 22
di sc 22
di st</w> 22
ra z 22
ph thal 22
th am 22
la c</w> 22
la tive</w> 22
la tin</w> 22
un a</w> 22
un culus</w> 22
it ation</w> 22
it alian</w> 22
po ten 22
as per 22
de posi 22
de dness</w> 22
om en 22
em o 22
bo ar 22
bo tt 22
sh am 22
sh ade</w> 22
sh ape</w> 22
con ce 22
oc key</w> 22
pro ced 22
com mand</w> 22
ne a</w> 22
ent y</w> 22
me dium</w> 22
hy acin 22
par am 22
do li 22
be ach</w> 22
vi ri 22
vi ola</w> 22
no v 22
we ap 22
ly si 22
ast ro 22
cal o 22
tre m 22
ber gia</w> 22
fo wl</w> 22
pl ing</w> 22
can e</w> 22
ss ness</w> 22
go at</w> 22
anth ro 22
lin er</w> 22
tra p</w> 22
cer ato 22
bro ad 22
hor iz 22
cro co 22
ple c 22
ple x</w> 22
tt a</w> 22
pal u 22
tor ia</w> 22
cul a</w> 22
bra ss</w> 22
americ anus</w> 22
chi p</w> 22
mil e</w> 22
gn ath 22
cam pan 22
form is</w> 22
az ine</w> 22
dra wing</w> 22
est ate</w> 22
des ert</w> 22
bas eball</w> 22
bat tery</w> 22
cas sia</w> 22
bit ter</w> 22
bla dder</w> 22
som e</w> 22
hon ey</w> 22
ax is</w> 22
cit rus</w> 22
chem istry</w> 22
brac hy 22
haem o 22
adi an</w> 22
psi lo 22
cab bage</w> 22
sty le</w> 22
zz le</w> 22
goo se 22
aco ustic</w> 22
sim ple</w> 22
coo kie</w> 22
tex t</w> 22
liqu id</w> 22
dut ch</w> 22
deli very</w> 22
quad ri 22
ana emia</w> 22
scar let</w> 22
haw k</w> 22
max im 22
fig ure</w> 22
judg ment</w> 22
sour ce</w> 22
scho ol 22
officin alis</w> 22
domes tic</w> 22
clim bing</w> 22
lady 's</w> 22
salam ander</w> 22
eur y 22
fram e</w> 22
eucaly ptus</w> 22
veget able</w> 22
brassi ca</w> 22
finan cial</w> 22
proced ure</w> 22
z o</w> 21
i et 21
i fication</w> 21
a ero 21
o x</w> 21
o des</w> 21
o saur</w> 21
s mu 21
g al</w> 21
g il 21
g ood 21
e as 21
t z</w> 21
t ance</w> 21
n is 21
d ram 21
u pper</w> 21
v ic</w> 21
x ia</w> 21
h ag 21
h ick 21
j ury</w> 21
w ing 21
f a</w> 21
f ab 21
in aceae</w> 21
er io 21
an atom 21
ti d</w> 21
ti li 21
al o</w> 21
al le 21
al ing</w> 21
st le 21
st le</w> 21
st atic</w> 21
ri an</w> 21
ch y 21
am on 21
co co 21
co ach</w> 21
le ather</w> 21
di e</w> 21
di al</w> 21
ra ge</w> 21
ph ra 21
th iness</w> 21
ic ar 21
po m 21
de x 21
et us</w> 21
id ness</w> 21
to i 21
to wer</w> 21
bo s</w> 21
bo u 21
sh er</w> 21
mo u 21
mo on 21
ab sol 21
con ven 21
con tra 21
oc ero 21
oc cid 21
he av 21
pro b 21
com bin 21
lan tern</w> 21
ne ut 21
sc ler 21
ent ry</w> 21
ig u 21
te x</w> 21
ho t 21
car rier</w> 21
vi ol 21
tic k</w> 21
sa w 21
ber t</w> 21
ci vi 21
ven ae</w> 21
wh ip 21
can di 21
ser r 21
bal lo 21
io sa</w> 21
sub stance</w> 21
av a</w> 21
bre ad 21
dic t</w> 21
ob acter 21
hor ned</w> 21
pa int 21
shi p 21
pin n 21
py th 21
sho w 21
fac tory</w> 21
gal lin 21
mil let</w> 21
hal i 21
pho li 21
fri till 21
ben ch</w> 21
pur pu 21
gran d 21
hydro gen</w> 21
bas ket 21
bat tle</w> 21
cle mati 21
cas h</w> 21
bit al</w> 21
fa ir</w> 21
fa ult</w> 21
spor e</w> 21
flu id</w> 21
lep id 21
trans mission</w> 21
som eness</w> 21
mel an 21
smo oth</w> 21
sli pper</w> 21
inf ant</w> 21
acc es 21
spin al</w> 21
commun ity</w> 21
hun ting</w> 21
pec tor 21
dig ital</w> 21
scri pt</w> 21
odon tidae</w> 21
rhy thm</w> 21
genti an</w> 21
gym n 21
foot ball</w> 21
fem ale</w> 21
fore ign</w> 21
tech no 21
condi tion 21
pay ment</w> 21
fish ing</w> 21
aro o</w> 21
buff alo</w> 21
sick ness</w> 21
respon se</w> 21
commer cial</w> 21
roll er</w> 21
guin ea</w> 21
exter nal</w> 21
seas on</w> 21
educ ation</w> 21
spur ge</w> 21
trum pet</w> 21
cog ni 21
dial ect</w> 21
missi le</w> 21
architec ture</w> 21
poster ior</w> 21
almon d</w> 21
veh icle</w> 21
grow th</w> 21
chlam y 21
z an 20
y on</w> 20
i tion</w> 20
i el</w> 20
i ster</w> 20
i fera</w> 20
m ack 20
m athemati 20
o w 20
o tus</w> 20
o graph</w> 20
s wa 20
l ace</w> 20
g s</w> 20
g ad 20
e e 20
e b 20
t age</w> 20
t ing 20
n 's</w> 20
n est</w> 20
c able</w> 20
u an</w> 20
u lidae</w> 20
v ity</w> 20
h inus</w> 20
b ec 20
b um 20
w oo 20
w ash</w> 20
k an</w> 20
k up</w> 20
f id 20
f oc 20
f igh 20
in et</w> 20
er er</w> 20
an ag 20
ti ger</w> 20
ti tude</w> 20
ar thro 20
or nis</w> 20
al ve 20
st ron 20
at er 20
on s</w> 20
ac er</w> 20
re g 20
re ven 20
re produc 20
li br 20
ch idae</w> 20
si dae</w> 20
am or 20
le an</w> 20
le pi 20
lo id</w> 20
ph obia</w> 20
th in 20
la bor 20
il lin</w> 20
it er</w> 20
as par 20
as pi 20
as pl 20
de mon 20
de vil</w> 20
ul aris</w> 20
to oth 20
se e 20
bo b 20
sp len 20
sp lit</w> 20
ap ri 20
mo le</w> 20
mo sch 20
per us</w> 20
con son 20
con stant</w> 20
pro gre 20
pro por 20
oo t</w> 20
ati s</w> 20
me dia</w> 20
ace ous</w> 20
pi um</w> 20
gu il 20
sa il</w> 20
rac h 20
rac ing</w> 20
ex o 20
ex change</w> 20
phy to 20
cu p 20
ci pit 20
sub division</w> 20
tu lip</w> 20
bre aker</w> 20
mat ch</w> 20
ari anism</w> 20
pa e 20
pa int</w> 20
inter est</w> 20
tr a</w> 20
cap ri 20
tur ni 20
tur key</w> 20
char acter</w> 20
mer cur 20
cent re</w> 20
pu ff 20
jo ur 20
sil k</w> 20
sil ver 20
hem o 20
hem p</w> 20
trac he 20
ass em 20
tal l</w> 20
pter us</w> 20
stre pto 20
gla u 20
wal k</w> 20
pul se</w> 20
spec trum</w> 20
fa iry</w> 20
run ner</w> 20
poli cy</w> 20
oper ating</w> 20
electro n</w> 20
sph er 20
sph inc 20
bla st</w> 20
spe ed</w> 20
asi an</w> 20
mel on</w> 20
cry stal</w> 20
acc el 20
secon dary</w> 20
gram ma</w> 20
ment ation</w> 20
chri sti 20
pac ific</w> 20
dig it 20
virgin ia</w> 20
oli ve</w> 20
cel ery</w> 20
nig ra</w> 20
cand y</w> 20
gym no 20
autom atic</w> 20
lob ster</w> 20
ich thy 20
nur se</w> 20
engin eer</w> 20
pneum onia</w> 20
crimin al</w> 20
admini stration</w> 20
jas mine</w> 20
chrys anthemum</w> 20
develo pment</w> 20
execu tive</w> 20
globu lin</w> 20
maiden hair</w> 20
kang aroo</w> 20
clemati s</w> 20
mercur y</w> 20
sphinc ter</w> 20
y ew</w> 19
i thecus</w> 19
a o</w> 19
a il 19
m o</w> 19
o p</w> 19
o wl</w> 19
s o</w> 19
s word</w> 19
s ses</w> 19
g l 19
g rac 19
g ium</w> 19
e du 19
e lis</w> 19
p sis</w> 19
p ill</w> 19
t ine</w> 19
t ent 19
t ment</w> 19
t rin 19
n in 19
d i</w> 19
d ger</w> 19
c lam 19
b s</w> 19
j us 19
w ool</w> 19
k or 19
k iness</w> 19
f o</w> 19
f li 19
f ather</w> 19
f agus</w> 19
in er 19
in vest 19
ti tis</w> 19
ti re</w> 19
ar gen 19
ar ven 19
ar chi 19
ar cha 19
or n</w> 19
al k 19
al low</w> 19
ro pe</w> 19
ro sa</w> 19
st or</w> 19
st atus</w> 19
ac ri 19
re con 19
re tro 19
re serve</w> 19
li li 19
ri g</w> 19
ri te</w> 19
ch a</w> 19
ch in</w> 19
am ide</w> 19
co st 19
le gi 19
le dge</w> 19
lo co 19
lo qu 19
lo sis</w> 19
di s</w> 19
di er</w> 19
gen etic</w> 19
es sion</w> 19
ph ere</w> 19
la dder</w> 19
il li 19
el a</w> 19
de b 19
et ry</w> 19
ul ator</w> 19
ul mus</w> 19
to ol</w> 19
bo y 19
bo sc 19
mo le 19
mo tive</w> 19
ab domin 19
ad v 19
he dron</w> 19
com mon 19
com bat</w> 19
lan e</w> 19
lan t</w> 19
ent ed</w> 19
me t</w> 19
me al</w> 19
me eting</w> 19
ho e</w> 19
hy bri 19
so l</w> 19
so ur</w> 19
gu ar 19
bi lis</w> 19
ta ke</w> 19
mon y</w> 19
im ag 19
tic um</w> 19
tic ian</w> 19
ru d 19
ste am</w> 19
pre si 19
mar ch</w> 19
fi ed</w> 19
cy pri 19
phy ta</w> 19
tre at 19
gre ater</w> 19
can t</w> 19
ser ge 19
bal sam</w> 19
ha y 19
lin e 19
tra ining</w> 19
plan tain</w> 19
ge ometry</w> 19
pen ny</w> 19
pri ck 19
my s</w> 19
my c 19
ten ess</w> 19
ten se</w> 19
cer v 19
bro ad</w> 19
hor n 19
pa ir</w> 19
tr en 19
pal at 19
pal ae 19
hi er 19
hi on</w> 19
cat cher</w> 19
sti l 19
bri um</w> 19
bri tish</w> 19
war fare</w> 19
gal l 19
mor ph 19
mor ning</w> 19
sw itch</w> 19
ban ana</w> 19
glo ve</w> 19
jo b</w> 19
fic ial</w> 19
ner vus</w> 19
cam pa 19
stra w</w> 19
din ner</w> 19
vo ice</w> 19
har d 19
bac illus</w> 19
fu sion</w> 19
fu el</w> 19
dra ft</w> 19
sol ution</w> 19
swe et 19
thro at</w> 19
ear th 19
cli p</w> 19
ant um</w> 19
chro no 19
tw enty</w> 19
ev ent</w> 19
clu sion</w> 19
dac ry 19
sum ac</w> 19
sle y</w> 19
sle ep</w> 19
pun ch</w> 19
orch is</w> 19
psi tt 19
stu dy</w> 19
alo g</w> 19
dec imal</w> 19
spi ro 19
flor um</w> 19
bell y</w> 19
bacter ium</w> 19
esthe tic</w> 19
ny mph 19
vac u 19
cran berry</w> 19
indu strial</w> 19
fur n 19
blin dness</w> 19
condi tion</w> 19
fas ci 19
schiz oph 19
meas ure</w> 19
priv ate</w> 19
alpin ia</w> 19
jum ping</w> 19
acade my</w> 19
profes sional</w> 19
gau ge</w> 19
cardi ac</w> 19
magno lia</w> 19
associ ation</w> 19
wool ly</w> 19
bure au</w> 19
cinnam on</w> 19
membran e</w> 19
epilep sy</w> 19
distribu tion</w> 19
leuk emia</w> 19
rattle snake</w> 19
golden rod</w> 19
palu stris</w> 19
hick ory</w> 19
serge ant</w> 19
y man</w> 18
r al 18
r aceae</w> 18
i er</w> 18
m s</w> 18
m i</w> 18
m ite</w> 18
o e 18
o do 18
g idae</w> 18
e sia</w> 18
p tive</w> 18
p ile</w> 18
n idae</w> 18
n ica</w> 18
d ul 18
d ub 18
d ge 18
c is</w> 18
v is</w> 18
x y</w> 18
x is</w> 18
x ero 18
h i</w> 18
h in 18
h er</w> 18
h ind 18
b i</w> 18
b ent</w> 18
b ite</w> 18
j ump</w> 18
k ick</w> 18
f it 18
f lan 18
er i</w> 18
er ator</w> 18
or ium</w> 18
or eg 18
al as 18
al um 18
ro l</w> 18
ro le</w> 18
ro ast</w> 18
st on</w> 18
st op 18
st ell 18
st amp</w> 18
at ch</w> 18
on ism</w> 18
ac tiv 18
re s</w> 18
re ad 18
re turn</w> 18
ch ant</w> 18
ch io 18
le ar 18
lo ad</w> 18
lo cal</w> 18
ra w</w> 18
ra il</w> 18
il ure</w> 18
un ding</w> 18
it es</w> 18
po pu 18
po didae</w> 18
as a</w> 18
de tec 18
om an</w> 18
ter ri 18
ter ing</w> 18
ter ia</w> 18
ag er</w> 18
to ur</w> 18
to wel</w> 18
bo ur</w> 18
sp le 18
sp as 18
sh re 18
ir a</w> 18
ol atry</w> 18
ab or 18
ad or 18
con den 18
con nec 18
he lor</w> 18
pro tec 18
lan ce 18
ub a</w> 18
sc ra 18
ent um</w> 18
ati sm</w> 18
te am</w> 18
me la 18
pe ace</w> 18
ho li 18
par asi 18
par sley</w> 18
ran ce</w> 18
gra vit 18
be t</w> 18
no un</w> 18
we b</w> 18
for tun 18
im age</w> 18
sa uria</w> 18
bl y</w> 18
mar sh 18
mar iti 18
ce ps</w> 18
ell y</w> 18
fi f 18
fi li 18
cy lin 18
ang ium</w> 18
tre ss</w> 18
fo und 18
bu lar</w> 18
ser ies</w> 18
sal ic 18
sal is</w> 18
ck et 18
cla m</w> 18
mal ign 18
gro use</w> 18
bre ast 18
dic a</w> 18
dic tion</w> 18
oph is</w> 18
ari sto 18
pa y</w> 18
cho le 18
cro tal 18
pla stic</w> 18
flo ur</w> 18
ty ran 18
met abo 18
sk y 18
sk ir 18
hi bi 18
hi bis 18
sti t 18
ep s</w> 18
ep is 18
sho ulder</w> 18
fac ial</w> 18
tom a</w> 18
rh om 18
sw im 18
men ing 18
pho en 18
sco t 18
ju di 18
fla sh</w> 18
abili s</w> 18
hem or 18
bac helor</w> 18
serv ic 18
tal k</w> 18
bor e 18
ben zo 18
syn the 18
equ is 18
wal king</w> 18
lat eral</w> 18
hol ding</w> 18
she ep 18
fra gran 18
ker ato 18
bla de</w> 18
coc cin 18
ori ental</w> 18
organ ic</w> 18
mem ber</w> 18
haem at 18
air craft</w> 18
physi cs</w> 18
bab y 18
spi ke</w> 18
ony x</w> 18
enter o 18
je w 18
tax us</w> 18
sat ur 18
pti an</w> 18
myr tle</w> 18
arm s</w> 18
span iel</w> 18
hear t 18
hear ing</w> 18
sati va</w> 18
ligh t 18
neg ative</w> 18
hab enaria</w> 18
contin u 18
free dom</w> 18
rail road</w> 18
sag it 18
orni th 18
judg ement</w> 18
paral le 18
engin eering</w> 18
prac tice</w> 18
stati stic 18
wic h</w> 18
scienti st</w> 18
kid ney</w> 18
exam ination</w> 18
stitu tion</w> 18
fici ency</w> 18
sme ar</w> 18
bole tus</w> 18
hyp no 18
exerc ise</w> 18
egy ptian</w> 18
toi let</w> 18
libr ary</w> 18
conson ant</w> 18
hibis cus</w> 18
a in</w> 17
m es</w> 17
o z 17
s op 17
s phy 17
s ke 17
l ing 17
g no 17
g ru 17
g rin 17
g len 17
e or 17
e idae</w> 17
t z 17
t at 17
t el 17
t 's</w> 17
t te</w> 17
t ry 17
t ata</w> 17
n id 17
n oo 17
n ations</w> 17
d w 17
d ag 17
d dle</w> 17
u k 17
v es</w> 17
v apo 17
h ero 17
b ine</w> 17
b ak 17
b ble</w> 17
k it</w> 17
k nee</w> 17
f es 17
f ence</w> 17
f old</w> 17
f ect</w> 17
1 0 17
en ni 17
er u 17
an ea</w> 17
an esthesia</w> 17
ti p</w> 17
al us</w> 17
al lig 17
ro s 17
ro ut 17
ro ugh</w> 17
st ap 17
st achy 17
on ian</w> 17
ac ty 17
re ss</w> 17
re ci 17
re ading</w> 17
li d</w> 17
ri ding</w> 17
ch at 17
ch ina</w> 17
am er</w> 17
co ast</w> 17
co smo 17
le mon 17
le can 17
le bor 17
lo x 17
lo sa</w> 17
di ve</w> 17
di ck 17
gen ic</w> 17
th u 17
la v 17
un k</w> 17
ic ide</w> 17
ic era</w> 17
el ing</w> 17
el ine</w> 17
ur er</w> 17
de ter 17
de ficiency</w> 17
em bo 17
ter er</w> 17
ter us</w> 17
to pus</w> 17
to uch</w> 17
mo ll 17
ol ine</w> 17
um e</w> 17
pro jection</w> 17
ig old</w> 17
me n</w> 17
pe z 17
pe ar</w> 17
hy dri 17
car dio 17
car riage</w> 17
so le 17
do u 17
ran k</w> 17
gra in</w> 17
be l</w> 17
pi m 17
pi per</w> 17
ma y</w> 17
ma sto 17
ta ke 17
cor di 17
sa us 17
ly m 17
ly n 17
pre gn 17
pre hen 17
su pre 17
mar igold</w> 17
ce li 17
ce bus</w> 17
ex tra 17
fi ve</w> 17
ang a</w> 17
ber mu 17
au x 17
au re 17
bu d</w> 17
man ship</w> 17
can al</w> 17
go ur 17
ele ssness</w> 17
der mat 17
min ute</w> 17
lin ear</w> 17
col on 17
tu mor</w> 17
por k</w> 17
fe lis</w> 17
mu g 17
bar bar 17
tr am 17
shi ft</w> 17
tin c 17
ty m 17
stri ped</w> 17
tur k 17
cat tle</w> 17
sti g 17
sti mul 17
war bler</w> 17
lor d</w> 17
sen ec 17
sen sation</w> 17
char acter 17
gal e</w> 17
cent r 17
sw allow</w> 17
son 's</w> 17
mac y</w> 17
ton ic</w> 17
ton 's</w> 17
sur ve 17
wil l</w> 17
cin er 17
hem lock</w> 17
hom e 17
az o 17
lon icera</w> 17
equ i 17
cri sp 17
cri cket</w> 17
wal ker</w> 17
ish ing</w> 17
ish ment</w> 17
lat hy 17
fa ilure</w> 17
lar yn 17
stom us</w> 17
spor ts</w> 17
idi ty</w> 17
aly sis</w> 17
xi co 17
sta phy 17
ocar p 17
pon d</w> 17
aut o</w> 17
bio logy</w> 17
def ence</w> 17
ham mer</w> 17
sun flower</w> 17
jap onica</w> 17
stu ff 17
spar row</w> 17
hel lebor 17
pac hy 17
que en</w> 17
syl v 17
syl la 17
cut ter</w> 17
multi ple</w> 17
clin ical</w> 17
chil d 17
net work</w> 17
suc ker</w> 17
tex as</w> 17
austr alis</w> 17
soli d</w> 17
basi c</w> 17
gloss um</w> 17
jam a 17
buil der</w> 17
frac ture</w> 17
phos phate</w> 17
pois oning</w> 17
soci ety</w> 17
ordin ate</w> 17
coron ary</w> 17
shoo ting</w> 17
mom ent</w> 17
fix ed</w> 17
fring ed</w> 17
aeg us</w> 17
teach er</w> 17
devil 's</w> 17
vaccin ium</w> 17
four th</w> 17
temper ature</w> 17
amy g 17
explo sive</w> 17
commit tee</w> 17
univer sal</w> 17
artem isia</w> 17
expen se</w> 17
frax inus</w> 17
know ledge</w> 17
crat aegus</w> 17
rif le</w> 17
omen on</w> 17
smu t</w> 17
good s</w> 17
occid entalis</w> 17
progre ssi 17
christi an</w> 17
invest ment</w> 17
y uc 16
r na</w> 16
i ro 16
a i 16
a ven 16
a eth 16
m idae</w> 16
o st 16
o bo 16
o lar</w> 16
g r 16
g es 16
g lac 16
g inger</w> 16
e i</w> 16
e si 16
e en</w> 16
e ating</w> 16
e aster</w> 16
e fulness</w> 16
p age</w> 16
p tom 16
p athy</w> 16
t ability</w> 16
n i</w> 16
n aceae</w> 16
n io 16
d rum 16
v ec 16
h ad 16
h ing 16
h ell 16
h ang 16
h und 16
h ud 16
h itter</w> 16
h ockey</w> 16
b ill 16
b ile</w> 16
b uck</w> 16
j or 16
w is 16
w ido 16
k ur 16
in o</w> 16
in su 16
en wort</w> 16
er on</w> 16
er idae</w> 16
an ian</w> 16
ti fication</w> 16
ar c</w> 16
or rhea</w> 16
al bi 16
al lis</w> 16
ro x 16
ro bin</w> 16
st am 16
at tor 16
at re</w> 16
on ium</w> 16
ac um</w> 16
re l 16
re ti 16
li ve</w> 16
li ft</w> 16
ri n</w> 16
ch le 16
ch is 16
ch um</w> 16
ch ess</w> 16
ch eno 16
si gh 16
si lic 16
am e</w> 16
co s 16
co il</w> 16
lo ss</w> 16
di aceae</w> 16
di ll 16
gen e 16
ra n</w> 16
ra ff 16
ra dar</w> 16
ph le 16
th an 16
th ing</w> 16
th um 16
la yer</w> 16
is ing</w> 16
is land</w> 16
un ci 16
it h</w> 16
po ker</w> 16
as cle 16
de w</w> 16
de ity</w> 16
de fin 16
de ep</w> 16
de aler</w> 16
et ri 16
et aceae</w> 16
em on 16
em bry 16
ter e 16
to po 16
se par 16
bo o</w> 16
bo un 16
bo wl</w> 16
sh ire</w> 16
ap in</w> 16
mo or 16
mo vi 16
mo ea</w> 16
ad ju 16
ad vis 16
um a</w> 16
con ve 16
con sul 16
con sum 16
pro fit</w> 16
com yc 16
lan der</w> 16
op ia</w> 16
ati veness</w> 16
me an</w> 16
pe e</w> 16
pe dium</w> 16
pe ach</w> 16
par th 16
par iet 16
gra du 16
be li 16
be ha 16
pi on 16
ver b</w> 16
ma p</w> 16
ma id</w> 16
gu er 16
bi an</w> 16
wor m 16
mar gin 16
fi st 16
cy be</w> 16
phy te</w> 16
ili s</w> 16
au rea</w> 16
cu le</w> 16
bu g 16
bu r</w> 16
man di 16
pl y</w> 16
pl ut 16
ss um</w> 16
go d</w> 16
bal l 16
bal li 16
ath le 16
sal v 16
tra vel</w> 16
por us</w> 16
mal ac 16
fe e</w> 16
fe ast</w> 16
mu d</w> 16
bar rier</w> 16
bar rel</w> 16
os ine</w> 16
bre ast</w> 16
ob ile</w> 16
oph io 16
oph orus</w> 16
cro w 16
stri c 16
met al 16
sk in 16
sk ele 16
du e</w> 16
tur n 16
py ri 16
bir d's</w> 16
den cy</w> 16
sen na</w> 16
fac tion</w> 16
char t</w> 16
char is</w> 16
ren ia</w> 16
mor t 16
mor el</w> 16
lam b</w> 16
cent ri 16
ox id 16
cur ve</w> 16
lic ense</w> 16
tho ught</w> 16
bur n</w> 16
her pes</w> 16
har e</w> 16
tion er</w> 16
ey ed</w> 16
ben z 16
dra w 16
dra gon</w> 16
stre am</w> 16
gla bra</w> 16
fin der</w> 16
cri me</w> 16
wal nut</w> 16
mas k</w> 16
br un 16
hydro xy 16
tele scope</w> 16
gol d 16
bit or</w> 16
posi tive</w> 16
spor idia</w> 16
oper a</w> 16
pit cher</w> 16
idi dae</w> 16
lac t 16
sph aer 16
lep ido 16
fra g 16
phi la 16
sul ph 16
hum an 16
wi th 16
new sp 16
mati dae</w> 16
ham am 16
sun day</w> 16
stat ement</w> 16
stin king</w> 16
ophy ceae</w> 16
dar k</w> 16
zy go 16
iv y</w> 16
bil li 16
loo p</w> 16
cran ial</w> 16
rho do 16
immun e</w> 16
resi stance</w> 16
genti ana</w> 16
vulgar e</w> 16
canad a</w> 16
hous ing</w> 16
dry opteris</w> 16
vet ch</w> 16
bear er</w> 16
vas cular</w> 16
king dom</w> 16
autom obile</w> 16
arti ficial</w> 16
disp lay</w> 16
distri ct</w> 16
rail way</w> 16
cl ub 16
verte br 16
sclero sis</w> 16
shri mp</w> 16
ipo moea</w> 16
cler k</w> 16
arcto s</w> 16
corpor ation</w> 16
sav ings</w> 16
repres ent 16
ely pteris</w> 16
methy l</w> 16
colle ge</w> 16
circum fle 16
shir t</w> 16
pep per 16
cele sti 16
flag ell 16
pulmon ary</w> 16
alphab et</w> 16
hosp ital</w> 16
pop lar</w> 16
stud ent</w> 16
absol ute</w> 16
basket ball</w> 16
reven ue</w> 16
aspl enium</w> 16
jus tice</w> 16
sple enwort</w> 16
tym pan 16
lathy rus</w> 16
i si 15
a y</w> 15
a or 15
m ation</w> 15
m uc 15
m ar</w> 15
m ary</w> 15
m ast</w> 15
o ur</w> 15
o saurus</w> 15
o strac 15
s ne 15
s lu 15
l d 15
l o</w> 15
l lium</w> 15
g ur 15
e der</w> 15
e el</w> 15
p ir 15
t as 15
t iness</w> 15
t ana</w> 15
t ten</w> 15
n ium</w> 15
n ick 15
d weed</w> 15
c ten 15
c lar 15
c uck 15
x en 15
h es 15
h ack 15
b ad</w> 15
b ber 15
b ber</w> 15
j es 15
w y 15
k s 15
k u</w> 15
f ia</w> 15
f ag 15
f ter</w> 15
f ast 15
f ting</w> 15
in tro 15
in her 15
in come</w> 15
en zy 15
er ship</w> 15
an ten 15
ti tle</w> 15
ti lus</w> 15
ar ing</w> 15
ar ium</w> 15
ar gon 15
al kal 15
ro u 15
ro ad 15
at aceae</w> 15
on er</w> 15
ac tus</w> 15
re tin 15
re frac 15
re verse</w> 15
re ference</w> 15
re gular</w> 15
re actor</w> 15
li lium</w> 15
ri ma</w> 15
co ll 15
lo u 15
lo g</w> 15
lo be</w> 15
di n</w> 15
di ap 15
di cot</w> 15
di amon 15
gen y</w> 15
ra x</w> 15
th io 15
la m</w> 15
la x</w> 15
la si 15
is ance</w> 15
is tics</w> 15
el er</w> 15
ur sus</w> 15
po ol</w> 15
de si 15
de al</w> 15
de la 15
de ca 15
de pression</w> 15
om ele 15
om ile</w> 15
em ission</w> 15
id ance</w> 15
sp it 15
sh an 15
sh ut 15
sh op 15
ap is</w> 15
ap pen 15
ap pli 15
mo di 15
mo sa</w> 15
ab ies</w> 15
qu ir 15
per si 15
ut ing</w> 15
con tr 15
pro p 15
pro of</w> 15
ne igh 15
sc an 15
sc and 15
sc rat 15
ent ary</w> 15
op tic</w> 15
ho tel</w> 15
car du 15
car yo 15
car tridge</w> 15
so m</w> 15
so le</w> 15
par k</w> 15
vi tis</w> 15
ver tic 15
ver tical</w> 15
ma st 15
cor ps</w> 15
cor tex</w> 15
for e</w> 15
sa uro 15
tri p</w> 15
mar i 15
mar mo 15
fi el 15
cy on</w> 15
ili dae</w> 15
au g 15
cu lation</w> 15
cu press 15
ci sion</w> 15
ven tion</w> 15
can s</w> 15
can adian</w> 15
ele v 15
bal aen 15
fer ti 15
min im 15
min eral</w> 15
sal via</w> 15
cre eper</w> 15
comm is 15
ll us</w> 15
cla y</w> 15
cla use</w> 15
por tun 15
my elo 15
fe ed</w> 15
cer co 15
str at 15
os um</w> 15
oph or 15
cro w</w> 15
flo ating</w> 15
stri ke</w> 15
sk y</w> 15
cap acity</w> 15
hi bitor</w> 15
lu x 15
py ram 15
cul aria</w> 15
dy e</w> 15
ron om 15
anti a</w> 15
gal van 15
the atre</w> 15
sn ap</w> 15
sw an</w> 15
uri st</w> 15
but t</w> 15
fic ate</w> 15
fre sh 15
bur num</w> 15
vo us</w> 15
pat h</w> 15
tion ism</w> 15
ey e 15
vir ens</w> 15
bor n</w> 15
fin al</w> 15
mas ti 15
spec tro 15
pp ed</w> 15
dom on 15
lat er 15
opter y 15
omet ri 15
hyper icum</w> 15
oper ator</w> 15
whe at 15
chro me</w> 15
pres sor</w> 15
vis co 15
asi atic</w> 15
chan nel</w> 15
bio logical</w> 15
dan cer</w> 15
organ isation</w> 15
yl um</w> 15
ax e</w> 15
fro m</w> 15
sper m</w> 15
bin ary</w> 15
brac hi 15
ko ut</w> 15
shor t 15
spon ge</w> 15
sand wich</w> 15
ophy te</w> 15
edi ble</w> 15
bell s</w> 15
fron tal</w> 15
lun g</w> 15
hand le</w> 15
virgin iana</w> 15
sat ure 15
vel vet</w> 15
direc tor</w> 15
sla ve</w> 15
phen omenon</w> 15
secre t</w> 15
ido sis</w> 15
var ic 15
bis cuit</w> 15
immun ity</w> 15
wit ch</w> 15
xy lo 15
cub ic</w> 15
acet ate</w> 15
genti an 15
bot ry 15
dog wood</w> 15
ulo se</w> 15
nas al</w> 15
regi on</w> 15
bron ze</w> 15
wre n</w> 15
blue berry</w> 15
bol t</w> 15
band age</w> 15
orni tho 15
ethy l</w> 15
haz el</w> 15
ever green</w> 15
night shade</w> 15
kit chen</w> 15
bene fit</w> 15
cover ing</w> 15
alb um</w> 15
manag ement</w> 15
treas ury</w> 15
dynam ics</w> 15
hygro phorus</w> 15
plu g</w> 15
exper im 15
iss ance</w> 15
terror ism</w> 15
congre ss</w> 15
chit on</w> 15
quanti ty</w> 15
quarter s</w> 15
cath ar 15
soft ware</w> 15
deposi t</w> 15
anatom y</w> 15
ocero s</w> 15
gl ory</w> 15
archa e 15
campa ign</w> 15
oreg on</w> 15
shre w</w> 15
lance ol 15
mariti ma</w> 15
attor ney</w> 15
ascle pi 15
celesti al</w> 15
y ro 14
y co 14
i ver</w> 14
a ine</w> 14
m um 14
m ass 14
m elli 14
o ic</w> 14
o gram</w> 14
o idea</w> 14
e o</w> 14
e berry</w> 14
p o</w> 14
p ru 14
p and 14
p tor</w> 14
p iness</w> 14
p ty 14
p rat 14
t ul 14
t aceae</w> 14
t ection</w> 14
c lan 14
c ata</w> 14
u sion</w> 14
v in</w> 14
v ice</w> 14
h ub 14
h ak 14
h ell</w> 14
b ati 14
b und 14
b ula</w> 14
j ar</w> 14
j elly</w> 14
w an 14
w ra 14
k an 14
k at 14
k iss</w> 14
f ing</w> 14
f ine</w> 14
f uc 14
f ight</w> 14
1 1 14
in i 14
in cen 14
in hibitor</w> 14
en gra 14
en idae</w> 14
en ne</w> 14
er el</w> 14
an y</w> 14
an ab 14
an idae</w> 14
an as</w> 14
ti ousness</w> 14
ar mor 14
ar enaria</w> 14
or y 14
or ship</w> 14
al ea</w> 14
al ler 14
ro sis</w> 14
st art</w> 14
ac ce 14
ac ris</w> 14
ac acia</w> 14
re le 14
re as 14
re duc 14
re son 14
re pti 14
re gression</w> 14
li e</w> 14
li tt 14
li mit 14
ri ch 14
ri ca</w> 14
ch thy 14
si li 14
si bility</w> 14
am per 14
co ag 14
co ty 14
co pper</w> 14
le berry</w> 14
lo un 14
di men 14
di chro 14
di ving</w> 14
ra u 14
es ti 14
es cul 14
th rush</w> 14
la n</w> 14
la h</w> 14
la p</w> 14
la go</w> 14
la stic</w> 14
la by 14
il le</w> 14
is sue</w> 14
ic on 14
ic aceae</w> 14
it ary</w> 14
po p</w> 14
po or</w> 14
de mic</w> 14
de oxy 14
de pend 14
et h</w> 14
ul l</w> 14
ul i</w> 14
ul ate</w> 14
ag ar 14
ag es</w> 14
se y</w> 14
se ver 14
se lec 14
se lagin 14
bo a</w> 14
bo di 14
sp ring 14
ap ter 14
ir us</w> 14
ir ri 14
mo squ 14
mo ld</w> 14
ab y 14
ab a</w> 14
ab strac 14
ad ap 14
ad dress</w> 14
per u 14
per for 14
per fect</w> 14
ut en 14
con st 14
con sc 14
con junc 14
oc actus</w> 14
he dge</w> 14
pro jec 14
sc ap 14
sc ut 14
op y 14
op tion</w> 14
op el 14
hy lo 14
hy de</w> 14
hy ster 14
car po 14
car cin 14
car go</w> 14
par ti 14
par tial</w> 14
ran ge 14
be gg 14
pi zz 14
vi al</w> 14
vi ver 14
ver sion</w> 14
sy no 14
ma ho 14
ta ker</w> 14
mon th</w> 14
cor rec 14
for d</w> 14
sa uridae</w> 14
wor ks</w> 14
ru p</w> 14
ast rum</w> 14
mar ch 14
ce a</w> 14
ex po 14
cy te</w> 14
fo ol 14
tro m 14
iz ing</w> 14
ry e</w> 14
der m</w> 14
ha w</w> 14
min d</w> 14
min ation</w> 14
sal t 14
tra il</w> 14
tra vel 14
sub si 14
plan t 14
ge al</w> 14
ni co 14
av o 14
pen ic 14
por phy 14
ten tion</w> 14
ill ing</w> 14
gro ss</w> 14
os ar 14
os copy</w> 14
wa it 14
dic tionary</w> 14
oph ile</w> 14
inter ior</w> 14
pan cre 14
pan ts</w> 14
pla in</w> 14
pla gue</w> 14
tr ine</w> 14
shi eld</w> 14
tt o</w> 14
sk ate</w> 14
mus cular</w> 14
tor ial</w> 14
hi stor 14
ba h 14
dy s 14
war t</w> 14
den sity</w> 14
sen sory</w> 14
mi ra 14
the o 14
mer ia</w> 14
lam b 14
lam in 14
rh ab 14
sn ake 14
sw i 14
blo ck 14
ban k 14
glo mer 14
glo ssi 14
cur tain</w> 14
fic us</w> 14
lic an</w> 14
sco py</w> 14
ju ven 14
tho us 14
und o</w> 14
bur g</w> 14
cin ia</w> 14
gin k 14
her b</w> 14
trac tor</w> 14
pat ent</w> 14
pat tern</w> 14
rec tus</w> 14
rat ing</w> 14
pet ty</w> 14
sor e</w> 14
sor rel</w> 14
prin ce</w> 14
equ us</w> 14
des k</w> 14
fin ch</w> 14
elli dae</w> 14
hydro x 14
indi rec 14
indi go</w> 14
fle xi 14
thro w</w> 14
vol ution</w> 14
idi an</w> 14
spo on</w> 14
lac to 14
sph en 14
sph ere</w> 14
ocar p</w> 14
let te</w> 14
ker 's</w> 14
don tidae</w> 14
pres ent</w> 14
eth ane</w> 14
leg s</w> 14
wri tten</w> 14
wi fe</w> 14
def ect</w> 14
new s 14
sle eping</w> 14
bet ula</w> 14
sou th 14
gg le</w> 14
commun is</w> 14
ves sel</w> 14
flor ida</w> 14
thre sh 14
qui si 14
nig er</w> 14
nig ri 14
til le 14
rela tive</w> 14
rela tivity</w> 14
produc tion</w> 14
cott on 14
butter cup</w> 14
cock tail</w> 14
myr me 14
cere br 14
ses sion</w> 14
stand ing</w> 14
sig mo 14
dacty lus</w> 14
econom y</w> 14
gor illa</w> 14
bear ing</w> 14
flam e</w> 14
thri tis</w> 14
ana esthesia</w> 14
fel low</w> 14
lingu istic</w> 14
ocephal us</w> 14
chon dri 14
sus pen 14
cuc um 14
whis key</w> 14
acade mic</w> 14
fon t</w> 14
phil us</w> 14
pear l</w> 14
grandi flora</w> 14
lie uten 14
chron ic</w> 14
bub ble</w> 14
rib bon</w> 14
dow ny</w> 14
glan du 14
ventri cular</w> 14
cr uci 14
conserv ation</w> 14
sent ence</w> 14
loc ust</w> 14
fund am 14
hydra u 14
rhag ic</w> 14
birth day</w> 14
even ing</w> 14
cig ar 14
certi ficate</w> 14
ede ma</w> 14
campan ula</w> 14
phra se</w> 14
fritill aria</w> 14
techno logy</w> 14
alve olar</w> 14
assem bly</w> 14
malign ant</w> 14
hibi tion</w> 14
enni al</w> 14
allig ator</w> 14
rout ine</w> 14
aux ili 14
equi val 14
progressi ve</w> 14
movi e</w> 14
laby rin 14
z el</w> 13
y or 13
r h</w> 13
a g</w> 13
m im 13
o y</w> 13
o on</w> 13
o il 13
s .</w> 13
s an</w> 13
s ack</w> 13
s eness</w> 13
s ock</w> 13
s mit 13
g el 13
g ical</w> 13
e h 13
e um 13
e gre 13
e dy</w> 13
p i</w> 13
p is</w> 13
p ic</w> 13
t ad 13
t ari 13
t fulness</w> 13
n op 13
n ation 13
d op 13
d iness</w> 13
d dy</w> 13
d na</w> 13
c i</w> 13
c is 13
c ia</w> 13
u li 13
u to 13
u ration</w> 13
u lati 13
v om 13
v est</w> 13
v eller</w> 13
h it</w> 13
b ram 13
j ub 13
k ir 13
k ho 13
k ling</w> 13
in si 13
in oc 13
in ian</w> 13
in tra 13
in ion</w> 13
in vent 13
in stal 13
er ec 13
er ed</w> 13
an is 13
an ne 13
an ci 13
an xi 13
ti an</w> 13
ti tan 13
ar in</w> 13
ar sen 13
ar bit 13
ar dia</w> 13
al is 13
al lu 13
al gia</w> 13
al nus</w> 13
st .</w> 13
st abili 13
st ool</w> 13
at i</w> 13
at ar 13
at hy 13
on us</w> 13
ac ry 13
ri x</w> 13
ri al</w> 13
ch ance</w> 13
ch ase</w> 13
si d</w> 13
si ck</w> 13
si da</w> 13
am ic</w> 13
co ol 13
co lic</w> 13
le e</w> 13
le ast</w> 13
le ather 13
lo pe</w> 13
di i</w> 13
di on</w> 13
gen s</w> 13
ra ft</w> 13
es sen 13
es ophag 13
ph er</w> 13
ph th 13
ph ora</w> 13
la z 13
la g 13
la di 13
la un 13
la ke</w> 13
la ev 13
la phus</w> 13
ic an</w> 13
el and</w> 13
po ec 13
po ster</w> 13
as sia</w> 13
as pen</w> 13
de vi 13
de cor 13
de hyde</w> 13
om e 13
om orph 13
ul tra 13
em in 13
em ber</w> 13
em bro 13
us al</w> 13
to l 13
to y</w> 13
bo la</w> 13
sp ac 13
sp la 13
sp in</w> 13
sp ice</w> 13
ap plication</w> 13
mo lo 13
ab er 13
qu il 13
qu et 13
qu estion</w> 13
per ception</w> 13
um bre 13
con struc 13
oc to 13
he ating</w> 13
he ade 13
pro m 13
pro pri 13
com b</w> 13
com for 13
lan ce</w> 13
sc us</w> 13
sc ur 13
ent a</w> 13
ent om 13
te as 13
me dal</w> 13
pe dic 13
car p</w> 13
so ap 13
ran a</w> 13
ran unculus</w> 13
be ing</w> 13
pi lo 13
pi thecus</w> 13
no tho 13
no ise</w> 13
we b 13
bi d</w> 13
ta i</w> 13
ta king</w> 13
mon go 13
mon itor</w> 13
cor ru 13
cor tin 13
cor pus</w> 13
for est</w> 13
for mic 13
bl on 13
ly sis</w> 13
tri s</w> 13
tri ple</w> 13
tri angle</w> 13
ex ist 13
ex pedi 13
ex tension</w> 13
ing ing</w> 13
cy n 13
cy prin 13
cal am 13
ili brium</w> 13
ang el</w> 13
au gu 13
au lis</w> 13
cu stom 13
fo eti 13
wh or 13
tro glo 13
bu fo</w> 13
can is</w> 13
can nab 13
ser a</w> 13
go at 13
go th 13
ha iry</w> 13
anth er 13
lin k</w> 13
dis si 13
dis charge</w> 13
col ub 13
cla im</w> 13
pen n 13
pen ia</w> 13
pen cil</w> 13
por ting</w> 13
ten der 13
mu co 13
os oma</w> 13
bre ach</w> 13
bre aking</w> 13
bre athing</w> 13
ob e</w> 13
oph obia</w> 13
mat ch 13
ari x</w> 13
pa in</w> 13
inter pre 13
cro s 13
tr e</w> 13
pal li 13
pal eo 13
met ric</w> 13
od le</w> 13
od acty 13
mus k</w> 13
tor to 13
tor pe 13
hi story</w> 13
py c 13
py re 13
gar den 13
bri ck 13
cul tiv 13
bir d 13
bra z 13
sho wer</w> 13
phal ang 13
war ning</w> 13
fac t</w> 13
fac ility</w> 13
ren al</w> 13
mer chant</w> 13
sn u 13
sw iss</w> 13
poly gon 13
tran spor 13
chi lo 13
mil kweed</w> 13
eg a</w> 13
ban ded</w> 13
pu p 13
fla sh 13
mag ic</w> 13
boo m</w> 13
ner vous</w> 13
cam pe 13
vo ting</w> 13
pat ch</w> 13
tion ality</w> 13
az z</w> 13
len der</w> 13
ben d</w> 13
bul b</w> 13
nor mal 13
eu ph 13
des mo 13
elli te</w> 13
sol dier</w> 13
gran ulo 13
tar get</w> 13
omet ric</w> 13
stom ach</w> 13
zo an</w> 13
ear ly</w> 13
comp ass</w> 13
pot amo 13
fun c 13
euro pa 13
fra ud</w> 13
let ter 13
don tia</w> 13
tw el 13
tw in</w> 13
trans mit 13
trans fer</w> 13
coc cy 13
spe ed 13
mel ano 13
less on</w> 13
hon or</w> 13
sli de</w> 13
nec k 13
out h</w> 13
fir m</w> 13
bran ch</w> 13
bran chio 13
aph id</w> 13
mem or 13
wi re 13
ation ist</w> 13
fil ter</w> 13
brac ket</w> 13
haem ato 13
pas ser 13
arch y</w> 13
tle ment</w> 13
ced rus</w> 13
ment ary</w> 13
sup ply</w> 13
cab inet</w> 13
vari able</w> 13
edi tor</w> 13
scri ption</w> 13
califor nic 13
cut ting</w> 13
oce an 13
kn oc 13
lum ber 13
ze al 13
pil lar</w> 13
bic ycle</w> 13
nav y</w> 13
wit ness</w> 13
voc al</w> 13
rhe um 13
star ting</w> 13
sion er</w> 13
hyd range 13
dacty lo 13
smal l 13
tim ate</w> 13
person nel</w> 13
eph emer 13
pne u 13
conver ter</w> 13
carol ina</w> 13
sha ft</w> 13
mechan ical</w> 13
nom in 13
cell ulose</w> 13
cuc ur 13
termin al</w> 13
orth op 13
phar yn 13
agro stis</w> 13
juni or</w> 13
reli gi 13
ever la 13
oly m 13
anom al 13
classi cal</w> 13
dir ty</w> 13
moder n</w> 13
collec tor</w> 13
magno li 13
repres entation</w> 13
phag a</w> 13
colle ction</w> 13
stroph y</w> 13
pod ocarpus</w> 13
popul us</w> 13
eleph ant</w> 13
ortho do 13
labi al</w> 13
catho lic</w> 13
differ ential</w> 13
zin c</w> 13
kill er</w> 13
employ ment</w> 13
poss ession</w> 13
fib re</w> 13
pleas ure</w> 13
epig ast 13
was p</w> 13
accoun ting</w> 13
tham nus</w> 13
hyacin th</w> 13
anthro pus</w> 13
horiz on 13
croco di 13
heav y</w> 13
ballo on</w> 13
pholi ota</w> 13
acces sory</w> 13
cogni tive</w> 13
mack erel</w> 13
mathemati cal</w> 13
aspar agus</w> 13
accel erator</w> 13
arven sis</w> 13
cerv ical</w> 13
vacu um</w> 13
furn ace</w> 13
judi cial</w> 13
stachy s</w> 13
saus age</w> 13
lyn x</w> 13
pregn ancy</w> 13
staphy lo 13
yuc ca</w> 13
vec tor</w> 13
reti rement</w> 13
nick el</w> 13
maho gan 13
lieuten ant</w> 13
hydrau lic</w> 13
auxili ary</w> 13
troglo dy 13
z ig 12
y go 12
r ul 12
i ra 12
i ence</w> 12
i ales</w> 12
i anum</w> 12
a es 12
a ire</w> 12
a emia</w> 12
a ya</w> 12
m ae</w> 12
m it</w> 12
o g 12
s ary</w> 12
s mar 12
s mi 12
l us 12
e in</w> 12
e aceae</w> 12
e ver</w> 12
e igh 12
e olus</w> 12
p au 12
p ath 12
p ast</w> 12
p ush</w> 12
t s 12
t ang 12
t ach 12
n el 12
n ag 12
n arc 12
d ur 12
d ant</w> 12
d ago</w> 12
c ec 12
c aceae</w> 12
c ram 12
v acc 12
x a</w> 12
x er 12
x eno 12
h il 12
h id 12
b low</w> 12
j i</w> 12
j ag 12
j av 12
w ell 12
w ler</w> 12
k is 12
k ent 12
k age</w> 12
k ite</w> 12
f r 12
f ic</w> 12
in gu 12
in for 12
in duc 12
in flam 12
in struction</w> 12
en ding</w> 12
er as 12
er ig 12
an ap 12
an te</w> 12
ti sh 12
ti aceae</w> 12
ti te</w> 12
ti ous</w> 12
ti zation</w> 12
ar is 12
ar iz 12
ar row</w> 12
ar tist</w> 12
ar row 12
ar auc 12
or um</w> 12
or der 12
or hynchus</w> 12
al th 12
al um</w> 12
al ex 12
al ep 12
ro bu 12
ro tun 12
st at</w> 12
on i</w> 12
on 's</w> 12
ac on 12
ac idae</w> 12
re mo 12
re cur 12
re view</w> 12
li am 12
ri tis</w> 12
si de 12
am p 12
am ne 12
co d 12
co l</w> 12
co on</w> 12
co le 12
co gn 12
le n</w> 12
le in</w> 12
le ge</w> 12
le ish 12
le onto 12
lo cal 12
lo stom 12
di vin 12
gen it 12
ra bility</w> 12
es ox</w> 12
ph an 12
ph in</w> 12
th om 12
th ia</w> 12
th elypteris</w> 12
la s</w> 12
ic ity</w> 12
ur s</w> 12
ur i</w> 12
ur an 12
ur inary</w> 12
ur ban</w> 12
po x</w> 12
po lar</w> 12
po ll</w> 12
as y</w> 12
as ci 12
de ad 12
de sign 12
de termin 12
et ales</w> 12
om an 12
om um</w> 12
ul l 12
ter es</w> 12
ter mes</w> 12
to s</w> 12
to sis</w> 12
to wn 12
to xico 12
se ed 12
sp ur</w> 12
sp ora</w> 12
ap ar 12
ap pe 12
mo ul 12
mo ther 12
ol er 12
ab s 12
ab ase</w> 12
ab use</w> 12
ec tes</w> 12
ad ult</w> 12
per ch</w> 12
per nic 12
he p 12
he lo 12
he el</w> 12
pro mis 12
pro bosc 12
com par 12
com posi 12
com position</w> 12
oo k</w> 12
sc y 12
sc a 12
sc en 12
sc ab 12
sc rub</w> 12
op idae</w> 12
op inion</w> 12
ati cus</w> 12
pe dal</w> 12
hy al 12
car ti 12
car char 12
car pa</w> 12
car ya</w> 12
car dam 12
ace us</w> 12
ace tic</w> 12
par us</w> 12
par ia</w> 12
par adi 12
par lor</w> 12
gra ve 12
pi g</w> 12
pi er</w> 12
pi per 12
pi sto 12
vi e 12
vi de 12
ver ben 12
ver onica</w> 12
sy ring 12
no sed</w> 12
bi us</w> 12
mon ar 12
mon oc 12
cor i 12
cor e</w> 12
sa c</w> 12
tri a</w> 12
tri llium</w> 12
wor thiness</w> 12
ru g</w> 12
ste w</w> 12
mar ket 12
ce l</w> 12
ex ha 12
fi x</w> 12
cy ber 12
phy sis</w> 12
phy ceae</w> 12
ili ac</w> 12
tre foil</w> 12
cu e</w> 12
cu st 12
fo ster</w> 12
ven ous</w> 12
gre y 12
bu oy</w> 12
pl us</w> 12
can ary</w> 12
ry ing</w> 12
go s 12
go u 12
go wn</w> 12
bal m</w> 12
bal sam 12
anth a</w> 12
io do 12
io logy</w> 12
io ides</w> 12
da ph 12
sal mon 12
cre w</w> 12
cre ation</w> 12
cre pe</w> 12
cre sted</w> 12
tra ding</w> 12
sub marine</w> 12
ll ing</w> 12
col lin 12
col lar</w> 12
ach ing</w> 12
av ing</w> 12
pen et 12
por cu 12
mal us</w> 12
fe eding</w> 12
bar n</w> 12
bar ium</w> 12
bro w 12
bro ker</w> 12
os phere</w> 12
dic ation</w> 12
ob li 12
ob serv 12
oph os 12
oph ilia</w> 12
oph ilus</w> 12
clo set</w> 12
hor set 12
hor ses 12
pa w</w> 12
ca s</w> 12
ca ff 12
gi e</w> 12
gi i</w> 12
pan el</w> 12
pan cake</w> 12
cro p</w> 12
ther ia</w> 12
ther mal</w> 12
pla gi 12
flo under</w> 12
tin e 12
ster a</w> 12
met eor 12
sk unk</w> 12
cap er</w> 12
tur us</w> 12
py lor 12
ba sin</w> 12
cat fish</w> 12
gar bage</w> 12
sti chum</w> 12
ide n</w> 12
dy strophy</w> 12
elec tion</w> 12
ron ia</w> 12
the li 12
chi lean</w> 12
blo w 12
mil k 12
val ley</w> 12
sur geon</w> 12
sur gical</w> 12
glo be</w> 12
pho tom 12
lic al</w> 12
dri p</w> 12
pap er 12
bur ner</w> 12
din idae</w> 12
din osaur</w> 12
sil ky</w> 12
hem ato 12
form er</w> 12
tan e 12
her ring</w> 12
pat rol</w> 12
rat ed</w> 12
nor th 12
sor t</w> 12
sor gh 12
equ ation</w> 12
equ ilibrium</w> 12
des cri 12
des cen 12
fin ance</w> 12
radi al</w> 12
ish er</w> 12
elli p 12
pic ea</w> 12
pic ker 12
br us 12
tar ian</w> 12
bat hy 12
super family</w> 12
ear s</w> 12
comp act</w> 12
sem an 12
pit u 12
phyll aceae</w> 12
she pher 12
sar coma</w> 12
spo on 12
lac ri 12
ker s</w> 12
jun e</w> 12
san c 12
leg is 12
leg ia</w> 12
assi stant</w> 12
electri city</w> 12
ev idence</w> 12
sli me</w> 12
wri t</w> 12
cry stal 12
eff ec 12
thor ac 12
ade s</w> 12
spin y</w> 12
yo ung</w> 12
doc trine</w> 12
hun ter</w> 12
je wel 12
zy g 12
tac t</w> 12
wel sh</w> 12
stal l</w> 12
tax is</w> 12
virgin ica</w> 12
iv ory</w> 12
oli go 12
sat ellite</w> 12
califor nica</w> 12
nucle us</w> 12
han g</w> 12
ze bra</w> 12
wit ch 12
rhy n 12
mut ual</w> 12
tox ic</w> 12
cast ing</w> 12
refle c 12
icul ata</w> 12
cand le 12
gloss us</w> 12
crac k</w> 12
crac ker</w> 12
vet er 12
encephal on</w> 12
vas o 12
hab it 12
ay an</w> 12
oste o 12
gener ation</w> 12
meas uring</w> 12
mechan ism</w> 12
chon a</w> 12
buff er</w> 12
inte stin 12
rock y</w> 12
bow ling</w> 12
sulf ate</w> 12
artic le</w> 12
artic ulati 12
uti lity</w> 12
shoo ter</w> 12
sick le</w> 12
verte bral</w> 12
pack ing</w> 12
angu lar</w> 12
commer ce</w> 12
gas oline</w> 12
oly sis</w> 12
wash ing</w> 12
tain ment</w> 12
preci pit 12
grav ity</w> 12
whi p</w> 12
trun k</w> 12
phas eolus</w> 12
stru thi 12
cyan ide</w> 12
fat ty</w> 12
diag no 12
chama ec 12
chama ele 12
pressi ve</w> 12
pyr rh 12
bast ard</w> 12
won der</w> 12
joh n's</w> 12
anch or</w> 12
identi fication</w> 12
omyco ta</w> 12
ange lica</w> 12
righ ts</w> 12
appar atus</w> 12
cardin al</w> 12
dat abase</w> 12
him an 12
bap tist</w> 12
pain ting</w> 12
saxifra ge</w> 12
recor ding</w> 12
absor ption</w> 12
carbon ate</w> 12
bomb yc 12
poten tial</w> 12
serr atus</w> 12
paint ed</w> 12
purpu rea</w> 12
foc al</w> 12
figh ter</w> 12
reproduc tive</w> 12
turni p</w> 12
abdomin al</w> 12
cypri pedium</w> 12
treat ment</w> 12
tren ch</w> 12
schizoph renia</w> 12
abor tion</w> 12
holi day</w> 12
crotal us</w> 12
skir t</w> 12
rhom bo 12
swim ming</w> 12
bore alis</w> 12
dou gla 12
bermu da</w> 12
gour d</w> 12
senec io</w> 12
character istic</w> 12
cheno podium</w> 12
newsp aper</w> 12
enzy me</w> 12
cupress us</w> 12
strat eg 12
asclepi as</w> 12
chthy s</w> 12
coty le 12
mosqu ito</w> 12
begg ar</w> 12
indirec t</w> 12
smit h</w> 12
invent ory</w> 12
umbre lla</w> 12
pneu mo 12
cucur bit 12
everla sting</w> 12
mahogan y</w> 12
horset ail</w> 12
articulati o</w> 12
z en 11
z on 11
z ema</w> 11
y an 11
y an</w> 11
i ber 11
i anus</w> 11
a um 11
a qui 11
m ed</w> 11
m is</w> 11
o o</w> 11
o lo 11
o is</w> 11
o be 11
s p</w> 11
s iness</w> 11
l ate</w> 11
g ab 11
g ho 11
g race</w> 11
e ze</w> 11
p uc 11
p ple</w> 11
t su 11
t alis</w> 11
t win 11
t ale</w> 11
n ish</w> 11
n aria</w> 11
d ler</w> 11
c d</w> 11
c ed</w> 11
c lut 11
u ity</w> 11
v y 11
v apor 11
h ing</w> 11
h op 11
h uck 11
h iza</w> 11
j in 11
j an 11
j ar 11
j ab 11
j azz</w> 11
w s</w> 11
w id 11
w ron 11
k ness</w> 11
k worm</w> 11
in y</w> 11
in i</w> 11
in com 11
in cre 11
in emia</w> 11
in vol 11
in duction</w> 11
in stitution</w> 11
en s 11
en 's</w> 11
en for 11
er gic</w> 11
er oot</w> 11
an no 11
an ast 11
an ni 11
an ut</w> 11
ti t 11
ti l</w> 11
ti er</w> 11
ti ana</w> 11
ti sation</w> 11
ti lla</w> 11
ar ist</w> 11
ar ach 11
ar iness</w> 11
ar gy 11
ar yn 11
or ation</w> 11
or io 11
or pha</w> 11
al ly</w> 11
ro ach</w> 11
ro tary</w> 11
st ine</w> 11
st ran 11
st iness</w> 11
at eral</w> 11
on th</w> 11
ac i 11
ac id 11
re in</w> 11
re fin 11
li gu 11
li en</w> 11
li chen</w> 11
ri cket 11
ch en 11
ch ic 11
ch ig 11
ch at</w> 11
ch ium</w> 11
ch man</w> 11
ch ella</w> 11
ch ori 11
si c</w> 11
si er</w> 11
si ber 11
si tis</w> 11
si mul 11
si lla</w> 11
si cum</w> 11
am i</w> 11
am an</w> 11
am orph 11
co t 11
co ph 11
co con 11
co py 11
le v 11
le um</w> 11
le ver</w> 11
le spe 11
le ek</w> 11
le ading</w> 11
lo v 11
lo ur</w> 11
di v 11
di p</w> 11
di es 11
di tion</w> 11
di pter 11
di stin 11
di stance</w> 11
di oxide</w> 11
gen i 11
ra e</w> 11
ra g</w> 11
ra sp 11
es s 11
es hip</w> 11
ph ro 11
ph or</w> 11
ph ren 11
ph eno 11
ph asi 11
ph ilia</w> 11
th un 11
la y 11
la g</w> 11
la go 11
la wn</w> 11
is sus</w> 11
un di 11
ic ism</w> 11
el lia</w> 11
it ys</w> 11
po s</w> 11
po lar 11
po sal</w> 11
po lemon 11
et s</w> 11
et ta</w> 11
ul arity</w> 11
us ing</w> 11
ag on</w> 11
to w 11
to ll</w> 11
to tal</w> 11
se a 11
se e</w> 11
se ab 11
se dge</w> 11
se vent 11
bo at 11
bo li 11
sp ar</w> 11
mo us</w> 11
mo us 11
mo de</w> 11
mo du 11
ol ens</w> 11
ab lish 11
ec cle 11
ec zema</w> 11
qu ick 11
qu ail</w> 11
qu ick</w> 11
ad ri 11
ad am 11
ad he 11
per is 11
per sian</w> 11
ut es</w> 11
um bell 11
fam ili 11
con duc 11
con dy 11
con tem 11
con feder 11
con ference</w> 11
oc or 11
oc ele</w> 11
oc cup 11
oc cipit 11
he im 11
he ater</w> 11
he ather</w> 11
pro pan 11
com edy</w> 11
lan th 11
sc is 11
sc ul 11
ent er</w> 11
ent rance</w> 11
ig ni 11
op ist 11
ati n</w> 11
ati cum</w> 11
te ar 11
te en</w> 11
me an 11
me ga 11
pe d 11
pe lecan 11
car bo 11
car pen 11
ace an</w> 11
so y 11
par as 11
do x 11
be lia</w> 11
be ef 11
pi pi 11
pi thec 11
vi re 11
no de</w> 11
we t</w> 11
we ek</w> 11
ma k 11
gu y</w> 11
gu ide</w> 11
bi li 11
bi bli 11
ff in</w> 11
ta p</w> 11
ta ste</w> 11
mon ger</w> 11
cor pus 11
for mal 11
im e</w> 11
im eter</w> 11
tic k 11
sa vo 11
rac y</w> 11
wor d 11
mar su 11
mar ty 11
mar gin</w> 11
ex pan 11
ex pression</w> 11
ve a</w> 11
ve al</w> 11
ve ins</w> 11
and re 11
cy ri 11
cal ab 11
cal culus</w> 11
cal amus</w> 11
fo et 11
fo ssi 11
wh er 11
wh ir 11
bu n</w> 11
bu ster</w> 11
bu dd 11
man u 11
man ce</w> 11
man ual</w> 11
can non</w> 11
can thus</w> 11
ser o 11
go d 11
go bi 11
der er</w> 11
bal let</w> 11
io sis</w> 11
min dedness</w> 11
tra ge 11
tra sh</w> 11
tra gus</w> 11
ll er</w> 11
dis co 11
col on</w> 11
pen is</w> 11
por e</w> 11
por ter</w> 11
pri se</w> 11
pri son 11
mal e 11
bar n 11
bar ley</w> 11
str us</w> 11
str eng 11
bre w</w> 11
bre ech 11
wa x 11
oph ila</w> 11
clo se</w> 11
mat eri 11
cho ke</w> 11
gi b 11
gi ft</w> 11
ke eping</w> 11
cro wn 11
cro ssing</w> 11
pla ster</w> 11
pla smo 11
flo od</w> 11
tin us</w> 11
ple t</w> 11
ster y</w> 11
ty ph 11
stri fe</w> 11
od a</w> 11
cap su 11
py g 11
ba y 11
cat us</w> 11
cat eg 11
gar ment</w> 11
gar ian</w> 11
ep id 11
war rant</w> 11
sen ger</w> 11
sen ior</w> 11
ron e</w> 11
ron ium</w> 11
char adri 11
ren e</w> 11
gal l</w> 11
the ast</w> 11
tom us</w> 11
rh am 11
sn ail</w> 11
cent aurea</w> 11
ox alis</w> 11
sw oman</w> 11
chi ro 11
uri ty</w> 11
uri sm</w> 11
mil lion</w> 11
che e</w> 11
men tha</w> 11
squ ad</w> 11
squ ee 11
wil d 11
cur v 11
jo in 11
sco lo 11
thy san 11
stra p</w> 11
lea ve</w> 11
din ing</w> 11
ed ge</w> 11
yc in</w> 11
tion ship</w> 11
sto ve</w> 11
hom o</w> 11
fri end 11
len g 11
sor ship</w> 11
gam y</w> 11
gam ma</w> 11
gy rus</w> 11
eu pat 11
eu glen 11
syn chron 11
proc ta</w> 11
gan s</w> 11
pul sion</w> 11
tele graph</w> 11
na i 11
cir sium</w> 11
cle f</w> 11
fle a</w> 11
micro scope</w> 11
vol t</w> 11
fun eral</w> 11
tiv ism</w> 11
lep is</w> 11
ker at 11
phor ic</w> 11
bla sto 11
pon y</w> 11
trans fer 11
sul phate</w> 11
ori ented</w> 11
spe aker</w> 11
pra yer</w> 11
tet rac 11
cham omile</w> 11
pub lish 11
part ner</w> 11
sli p 11
wri te</w> 11
bio tic</w> 11
arc tic</w> 11
bran chia</w> 11
def en 11
nu isance</w> 11
back ground</w> 11
fil ing</w> 11
spin ach</w> 11
ela e 11
vin yl</w> 11
brac e</w> 11
scre w 11
gg ing</w> 11
hun t</w> 11
spon dy 11
ment s</w> 11
hel met</w> 11
wom an 11
vari eg 11
press ant</w> 11
eri e</w> 11
bell flower</w> 11
scor e</w> 11
scor pa 11
scor pion</w> 11
lun ar</w> 11
ocy tic</w> 11
atri x</w> 11
chri st</w> 11
bil led</w> 11
loo m</w> 11
kn ight</w> 11
sim um</w> 11
wood sia</w> 11
quar k</w> 11
pil low</w> 11
nav ig 11
rhy me</w> 11
arm ill 11
hear tedness</w> 11
colum n</w> 11
colum bi 11
icul us</w> 11
analy st</w> 11
acet um</w> 11
prim rose</w> 11
sion ary</w> 11
foot ed</w> 11
fem or 11
soli dago</w> 11
tech n 11
rag ma</w> 11
phon y</w> 11
nut ri 11
contin ental</w> 11
plac ement</w> 11
lingu istics</w> 11
pend ulum</w> 11
auri cul 11
euc li 11
meas ure 11
priv et</w> 11
color ed</w> 11
imper ial</w> 11
sulf ur</w> 11
liter ary</w> 11
whis ky</w> 11
petro l</w> 11
juni perus</w> 11
shri ke</w> 11
mir ror</w> 11
tricho loma</w> 11
scom ber 11
rain bow</w> 11
anthropo logy</w> 11
exper t</w> 11
break fast</w> 11
caes alpinia</w> 11
plas ma</w> 11
author ity</w> 11
odor ata</w> 11
aur anti 11
fut ure</w> 11
revol u 11
phlo x</w> 11
philosoph y</w> 11
rang ement</w> 11
bitter sweet</w> 11
zer o</w> 11
phthal mus</w> 11
weap on</w> 11
wing ed</w> 11
chy tri 11
thin king</w> 11
labor atory</w> 11
capri mul 11
prick ly</w> 11
breast ed</w> 11
hemor rhagic</w> 11
servic es</w> 11
paralle l</w> 11
stimul us</w> 11
stuff ed</w> 11
sylv atica</w> 11
amyg dal 11
beha vi 11
balli stic</w> 11
mort gage</w> 11
represent ative</w> 11
inher it 11
sature ja</w> 11
acce pt 11
repti le</w> 11
mira bilis</w> 11
juven ile</w> 11
cigar ette</w> 11
anxi ety</w> 11
heade d</w> 11
cortin arius</w> 11
zeal and</w> 11
hydrange a</w> 11
erig eron</w> 11
oler acea</w> 11
pisto l</w> 11
sorgh um</w> 11
intestin al</w> 11
z amia</w> 10
y m</w> 10
y er 10
y ach 10
y am</w> 10
y outh</w> 10
r ence</w> 10
i dium</w> 10
i dism</w> 10
a h 10
a us 10
o e</w> 10
o to 10
o at</w> 10
o gen</w> 10
o sity</w> 10
s se</w> 10
s ma</w> 10
s eller</w> 10
s lender</w> 10
l on</w> 10
l ace 10
g ing 10
g ist</w> 10
g ator</w> 10
g ula</w> 10
g ill</w> 10
e at 10
e ae</w> 10
e ba</w> 10
p r 10
p on</w> 10
p ation</w> 10
p tu 10
p igh 10
p ren 10
p sy</w> 10
p ro</w> 10
t ae</w> 10
t ack</w> 10
t sia</w> 10
t aria</w> 10
t ler</w> 10
t lessness</w> 10
n an 10
n ist</w> 10
d ation</w> 10
d ra</w> 10
d ating</w> 10
c em 10
c im 10
c ist</w> 10
c rin 10
c ren 10
c ade</w> 10
u x</w> 10
u er</w> 10
v um</w> 10
v ent</w> 10
v ati 10
h it 10
b is</w> 10
b ic</w> 10
b ang 10
b ath 10
b ach 10
j on 10
w et 10
w ig 10
w and 10
k ri 10
k le 10
k il 10
k es</w> 10
f ati 10
f ur</w> 10
f use</w> 10
f rat 10
in is</w> 10
in ch</w> 10
in age</w> 10
in ism</w> 10
in ales</w> 10
in hal 10
in verse</w> 10
en li 10
en vi 10
an al</w> 10
an aceae</w> 10
an th</w> 10
an non 10
ti i</w> 10
ti ales</w> 10
ar e 10
ar ma 10
ar ism</w> 10
ar rh 10
ar che 10
ar gyro 10
ar thritis</w> 10
ar rangement</w> 10
or ing</w> 10
al ge 10
al lus</w> 10
ro c 10
ro pia</w> 10
st us</w> 10
st um</w> 10
st he 10
st ata</w> 10
st ling</w> 10
at mo 10
at ho 10
on ii</w> 10
ac com 10
ac iousness</w> 10
ac ule 10
ac umin 10
ac idosis</w> 10
re n</w> 10
re t</w> 10
re ad</w> 10
re ck 10
re spec 10
re port</w> 10
li th</w> 10
ri o</w> 10
ri der</w> 10
ri st</w> 10
ch au 10
si x</w> 10
si as 10
am en 10
am an 10
am mo 10
am bi 10
am en</w> 10
am bul 10
am by 10
co e 10
co m</w> 10
co in</w> 10
le x</w> 10
le on 10
le op 10
lo bo 10
lo in</w> 10
lo ading</w> 10
lo af</w> 10
di folia</w> 10
di anthus</w> 10
gen ia</w> 10
ra tic</w> 10
ra ising</w> 10
es man</w> 10
es cape</w> 10
ph e</w> 10
ph is</w> 10
th ar 10
th rum</w> 10
th rust</w> 10
la b</w> 10
la gus</w> 10
il lidae</w> 10
un ic 10
un gu 10
el an 10
it ri 10
po se</w> 10
po gon 10
po int 10
po gon</w> 10
de an</w> 10
de can 10
de ath 10
de uter 10
ul on</w> 10
ul aceae</w> 10
em aker</w> 10
ter ran 10
ag er 10
ag as 10
ag glut 10
to ut</w> 10
to tal 10
to ler 10
to cybe</w> 10
se n</w> 10
se cu 10
se gre 10
se strife</w> 10
sh u 10
sh in 10
sh ap 10
ir d</w> 10
mo ur 10
mo ck</w> 10
mo od</w> 10
mo ving</w> 10
ab ra 10
qu in</w> 10
per ce 10
per icar 10
con cent 10
con ju 10
con go</w> 10
con tact</w> 10
oc a</w> 10
pro n 10
pro pen 10
pro pel 10
pro sop 10
com ing</w> 10
com pen 10
com bus 10
ub le</w> 10
ne on 10
sc h</w> 10
sc ape</w> 10
ent h</w> 10
op er</w> 10
te t</w> 10
te lo 10
me l</w> 10
me g</w> 10
pe anut</w> 10
ho g 10
ho b 10
par king</w> 10
par lour</w> 10
do t</w> 10
be et</w> 10
be at</w> 10
pi pe 10
vi ral</w> 10
vi lege</w> 10
we e</w> 10
we ather 10
ma iden</w> 10
gu it 10
bi ke</w> 10
ta y 10
cor al 10
for ces</w> 10
sa il 10
sa ff 10
sa fe</w> 10
ly ch 10
ly ing</w> 10
ly ca 10
ru e</w> 10
su icide</w> 10
mar as 10
ex pon 10
ing a</w> 10
ve stris</w> 10
ell aceae</w> 10
log ale</w> 10
fi bri 10
cy m 10
cy st 10
cy gn 10
cy stic</w> 10
cy cad 10
phy ton</w> 10
ili an</w> 10
au gh 10
ven us 10
ven der</w> 10
ak ed</w> 10
wh istle</w> 10
tro n</w> 10
tro ut</w> 10
tro pin</w> 10
man nia</w> 10
can a</w> 10
ser um</w> 10
ser ial</w> 10
ser pent 10
go er</w> 10
go pher</w> 10
ele ss</w> 10
ele gans</w> 10
der a</w> 10
der 's</w> 10
der mati 10
anth e</w> 10
dro om</w> 10
da ys</w> 10
tra y</w> 10
plan et</w> 10
plan ning</w> 10
ge or 10
ge um</w> 10
ach i 10
ach er</w> 10
ach ro 10
ni aceae</w> 10
pen s</w> 10
pen ny 10
por tra 10
pri de</w> 10
pri me</w> 10
pri sm</w> 10
pri son</w> 10
pri vilege</w> 10
my tho 10
mal t 10
mal pigh 10
fe ed 10
fe ather 10
cer a</w> 10
cer as 10
cer os</w> 10
bar ga 10
bar bital</w> 10
bre w 10
wa y 10
oph ore</w> 10
mat aceae</w> 10
mat ure</w> 10
pa s</w> 10
ca ve</w> 10
cho p</w> 10
gi ving</w> 10
inter val</w> 10
tr uth</w> 10
tin ia</w> 10
ster cu 10
ty ro 10
ty pe 10
stri an</w> 10
met re</w> 10
pin e 10
od y</w> 10
od en 10
sk il 10
cap sicum</w> 10
tur dus</w> 10
lu pine</w> 10
cat er 10
bri ck</w> 10
bri stle 10
ide us</w> 10
cul tural</w> 10
ep tor</w> 10
bra in 10
bra tion</w> 10
sho e 10
den ti 10
sen ti 10
gal a</w> 10
ger a</w> 10
the or 10
mor al</w> 10
mor pho 10
mor pha</w> 10
tom ys</w> 10
sn ak 10
ox ylon</w> 10
poly po 10
tran sp 10
blo om 10
blo cker</w> 10
eg g 10
mac ad 10
val uation</w> 10
squ ar 10
pu den 10
but y 10
lic ence</w> 10
sco ut</w> 10
tho use</w> 10
fla x</w> 10
mag net 10
boo ster</w> 10
dri ving</w> 10
thy me</w> 10
ner v 10
ner ia</w> 10
pap aver</w> 10
stra tive</w> 10
cin c 10
cin chona</w> 10
din ar</w> 10
gin ea</w> 10
tan acetum</w> 10
tal inum</w> 10
sel en 10
fri end</w> 10
gam es</w> 10
ssi ma</w> 10
est ablish 10
bon es</w> 10
bon net</w> 10
syn ap 10
pic k 10
pul l</w> 10
na issance</w> 10
indi a</w> 10
cen ti 10
cen ter 10
lat ry</w> 10
ga y</w> 10
micro wave</w> 10
swe at</w> 10
swe dish</w> 10
lar ch</w> 10
cephal o 10
sem per 10
oper ations</w> 10
chin ensis</w> 10
lac er 10
sta ir 10
bom bing</w> 10
pres by 10
vis e</w> 10
jun gle</w> 10
vul us</w> 10
coc co 10
assi gn 10
smo ke</w> 10
wri ght</w> 10
ip es</w> 10
cry p 10
bio sis</w> 10
mit ra</w> 10
fir ing</w> 10
acc ess</w> 10
new ton's</w> 10
fro st</w> 10
sper mat 10
nit rate</w> 10
epi demic</w> 10
nat ure</w> 10
by te</w> 10
chor tus</w> 10
psi da</w> 10
sam pling</w> 10
lem ming</w> 10
spar k</w> 10
air s</w> 10
alo gue</w> 10
nar co 10
nar is</w> 10
vent ure</w> 10
ves per 10
sac red</w> 10
spi ration</w> 10
ophy ll</w> 10
ophy tina</w> 10
sym plo 10
vari ola</w> 10
ja y</w> 10
lim it</w> 10
flor us</w> 10
thre ad</w> 10
bacter iaceae</w> 10
sty lo 10
atri um</w> 10
tac hy 10
dol phin</w> 10
dio ica</w> 10
dio scor 10
ny m 10
wel fare</w> 10
syl vi 10
loo sestrife</w> 10
rela tionship</w> 10
odon to 10
fru it 10
quar tz</w> 10
thec a</w> 10
post al</w> 10
aden ia</w> 10
aden dron</w> 10
red wood</w> 10
chick weed</w> 10
abo ut</w> 10
arm ed</w> 10
medi ate</w> 10
medi terran 10
mini ster</w> 10
sap ro 10
cav al 10
aqu atica</w> 10
cand le</w> 10
get on</w> 10
liqu or</w> 10
stoc king</w> 10
opo gon</w> 10
past e</w> 10
perio dic</w> 10
chel ys</w> 10
high way</w> 10
ov is</w> 10
ante ater</w> 10
mad agas 10
mechan ics</w> 10
rhin oceros</w> 10
amar anthus</w> 10
blan ket</w> 10
rece iver</w> 10
verte bra</w> 10
indic a</w> 10
indic ator</w> 10
pol o</w> 10
cyc lic</w> 10
officin ale</w> 10
juni per</w> 10
reli ef</w> 10
radio active</w> 10
grandi s</w> 10
nitro gen</w> 10
gig ante 10
trop ism</w> 10
vig na</w> 10
key e</w> 10
aeg y 10
sut ure</w> 10
sni pe</w> 10
bli ster</w> 10
yellow wood</w> 10
passi ve</w> 10
passi flora</w> 10
ces sion</w> 10
diag ram</w> 10
ix odes</w> 10
mix ture</w> 10
poll ution</w> 10
eryth rina</w> 10
terror ist</w> 10
identi ty</w> 10
program ming</w> 10
hap lo 10
steno sis</w> 10
troph ic</w> 10
drin king</w> 10
bad ger</w> 10
concer t</w> 10
hepati tis</w> 10
gyro mitra</w> 10
ozo a</w> 10
rati o</w> 10
opla sty</w> 10
snap per</w> 10
harmon ic</w> 10
chromo some</w> 10
saxifra ga</w> 10
bam boo</w> 10
glu co 10
alg ae</w> 10
raz or</w> 10
boar ding</w> 10
calo chortus</w> 10
gnath us</w> 10
goose berry</w> 10
pyth on</w> 10
pector al</w> 10
lepi ota</w> 10
tooth ed</w> 10
edu lis</w> 10
kor ean</w> 10
recon naissance</w> 10
loco motive</w> 10
deb t</w> 10
lear ning</w> 10
popu lation</w> 10
detec tive</w> 10
cylin der</w> 10
aristo lo 10
equis etum</w> 10
fragran t</w> 10
coccin ea</w> 10
light ning</w> 10
reci pro 10
moll us 10
tinc toria</w> 10
hund red</w> 10
insu lin</w> 10
phle bo 10
unci ation</w> 10
comyc etes</w> 10
worm wood</w> 10
athle tic</w> 10
skele ton</w> 10
benz ene</w> 10
hamam eli 10
contr ace 10
scrat ch</w> 10
elev ator</w> 10
ory z 10
reson ance</w> 10
amper e</w> 10
expo sure</w> 10
osar coma</w> 10
hydrox ide</w> 10
thresh old</w> 10
equival ent</w> 10
ladi es'</w> 10
transpor tation</w> 10
religi on</w> 10
orthodo x</w> 10
horizon tal</w> 10
troglody tes</w> 10
vacc ine</w> 10
syring a</w> 10
gos sy 10
daph ne</w> 10
porcu pine</w> 10
ophos phate</w> 10
cucurbit a</w> 10
tsu ga</w> 10
enfor cement</w> 10
siber ian</w> 10
cocon ut</w> 10
dies el</w> 10
rasp berry</w> 10
opist ho 10
manu fac 10
eupat orium</w> 10
techn ical</w> 10
cygn us</w> 10
dermati tis</w> 10
mediterran ean</w> 10
z y</w> 9
z ine</w> 9
z ea</w> 9
y i 9
y e 9
y i</w> 9
y ri 9
r ata</w> 9
r rh 9
i co 9
i sin</w> 9
i folium</w> 9
a o 9
a urus</w> 9
m in</w> 9
m ness</w> 9
m ist</w> 9
m uni 9
o ' 9
o de</w> 9
o stom 9
s ack 9
s ash</w> 9
l s</w> 9
l ent 9
g ren 9
e ut 9
e ight</w> 9
e tia</w> 9
e lium</w> 9
e opsis</w> 9
e au</w> 9
e ven</w> 9
p sal 9
p elli 9
p soph 9
p kin</w> 9
t ut 9
t ack 9
t ative</w> 9
n ine</w> 9
n im 9
n ity</w> 9
n az 9
d an</w> 9
d ing 9
d ina</w> 9
d ump</w> 9
c id</w> 9
c ass 9
c rum 9
c nem 9
u ary</w> 9
u ality</w> 9
u ousness</w> 9
v ah</w> 9
h as 9
h ul 9
b iness</w> 9
b athing</w> 9
j anus</w> 9
w er 9
k h 9
k am 9
k aff 9
f ice</w> 9
f ida</w> 9
f rut 9
1 9 9
in con 9
in ity</w> 9
in ator</w> 9
in ization</w> 9
in isation</w> 9
in spec 9
in flu 9
in struc 9
in clin 9
in put</w> 9
en us</w> 9
en ary</w> 9
en dom 9
er o</w> 9
er us</w> 9
er em 9
er ian</w> 9
er ica</w> 9
an ac 9
an ate</w> 9
an ist</w> 9
an cho 9
an ise</w> 9
an esthetic</w> 9
ti er 9
ti bi 9
ti sia</w> 9
ti lia</w> 9
ti folia</w> 9
ti sus</w> 9
ti bility</w> 9
ti dal</w> 9
ar b</w> 9
ar di 9
ar ina</w> 9
ar ization</w> 9
ar isation</w> 9
ar mor</w> 9
or o 9
or che 9
or rho 9
or hyn 9
or bital</w> 9
al bu 9
al em</w> 9
al dehyde</w> 9
ro un 9
ro om 9
ro tor</w> 9
ro und 9
st anti 9
at he 9
at ax 9
at traction</w> 9
on is</w> 9
on set</w> 9
ac er 9
ac on</w> 9
ac cipit 9
re p 9
re h 9
re se 9
re sc 9
re fri 9
re qui 9
re ader</w> 9
re source</w> 9
re pens</w> 9
li m</w> 9
ri g 9
ri dge</w> 9
ri dg 9
ch u 9
ch op 9
ch ange 9
si ster</w> 9
si ana</w> 9
si fication</w> 9
si tter</w> 9
am ing</w> 9
co er 9
co um 9
co lap 9
co ordinate</w> 9
co chle 9
le ment</w> 9
lo p</w> 9
lo ft</w> 9
lo usness</w> 9
lo cation</w> 9
lo belia</w> 9
di ary</w> 9
di aph 9
di vine</w> 9
ra j 9
ra ge 9
ra zo 9
ra pid</w> 9
es cal 9
ph ium</w> 9
ph ry 9
ph eas 9
th ra 9
la ur 9
la in</w> 9
la ss</w> 9
la ea</w> 9
la und 9
la ying</w> 9
la bour</w> 9
ic e 9
ic ian</w> 9
ic ker</w> 9
it us</w> 9
it arian</w> 9
it ude</w> 9
po on</w> 9
po ssi 9
de e</w> 9
de co 9
de ed</w> 9
de cre 9
de za</w> 9
de preci 9
de ception</w> 9
et er 9
et re</w> 9
et ail</w> 9
em ber 9
us alem</w> 9
ag ave</w> 9
to w</w> 9
to on</w> 9
to uch 9
se is 9
se wing</w> 9
se quo 9
bo c 9
bo t</w> 9
bo und 9
bo ston</w> 9
sp at 9
sp ra 9
sp ray</w> 9
sp lit 9
sh rub</w> 9
ap ple 9
mo sa 9
mo del</w> 9
ol aria</w> 9
ol factory</w> 9
ec k</w> 9
qu a 9
qu es 9
qu ality</w> 9
qu antum</w> 9
ad or</w> 9
ad mi 9
ad eno 9
per nel</w> 9
per ono 9
ut a</w> 9
con cre 9
con junction</w> 9
con stitu 9
con genital</w> 9
oc ta 9
he pat 9
he ap</w> 9
pro li 9
pro py 9
oo m</w> 9
ne pet 9
sc ru 9
ent ness</w> 9
op portun 9
te uc 9
me da</w> 9
pe ac 9
ho sti 9
hy em 9
car d 9
car ri 9
car am 9
so und 9
par o 9
par a</w> 9
par ent</w> 9
par vi 9
par tridge</w> 9
par liam 9
gra ft</w> 9
be ad</w> 9
be ater</w> 9
pi an</w> 9
pi ke</w> 9
vi ro 9
vi per 9
ver t</w> 9
sy ner 9
sy rian</w> 9
no t</w> 9
no tor 9
we eping</w> 9
we alth</w> 9
ma in 9
ma ster 9
gu ide 9
gu ava</w> 9
gu idance</w> 9
bi e</w> 9
bi color</w> 9
mon tia</w> 9
cor ner</w> 9
cor nus</w> 9
cor nut 9
for k</w> 9
for ec 9
im p 9
im plant</w> 9
tic e 9
sa uc 9
sa uri 9
sa iling</w> 9
rac em 9
ly tic</w> 9
tri bu 9
tri gon 9
tri color</w> 9
tri folium</w> 9
tri ticum</w> 9
wor ld 9
ste ering</w> 9
ste gia</w> 9
mar e</w> 9
mar row</w> 9
ex ten 9
ex am</w> 9
ex cel 9
ing ia</w> 9
cy st</w> 9
cy ano 9
phy salis</w> 9
cal ori 9
ang usti 9
ang lo</w> 9
ber s</w> 9
ber g</w> 9
ber 's</w> 9
cu losis</w> 9
fo ul</w> 9
fo ssa</w> 9
fl ute</w> 9
ci ti 9
ci ch 9
ven er 9
tro t</w> 9
bu t</w> 9
bu rial</w> 9
man der</w> 9
pl er</w> 9
pl ine</w> 9
ser ver</w> 9
go ing</w> 9
ha y</w> 9
io m</w> 9
ath us</w> 9
ath ering</w> 9
min ing</w> 9
da m</w> 9
da val 9
lin a</w> 9
tra v 9
tra in 9
ge an</w> 9
col li 9
tu b</w> 9
ni v 9
cla w</w> 9
mal v 9
fe ature</w> 9
mu ja 9
cer y</w> 9
str atum</w> 9
bro m 9
bro ther</w> 9
bre eding</w> 9
dic ty 9
ob jec 9
ob lastic</w> 9
rin k</w> 9
oph rys</w> 9
hor ri 9
hor ten 9
mat ory</w> 9
pa ir 9
ca eru 9
cho ice</w> 9
pan e</w> 9
pla in 9
flo at</w> 9
shi pping</w> 9
tin ea</w> 9
ple ment</w> 9
ster ed</w> 9
ster ol</w> 9
stri ata</w> 9
od us</w> 9
cap ro 9
cap ra</w> 9
cap illary</w> 9
du ra 9
tor re 9
tor tri 9
tur er</w> 9
tur bine</w> 9
coun ty</w> 9
lu gg 9
py ron</w> 9
ba i 9
cat 's</w> 9
cat ch</w> 9
cat ech 9
bri ttle</w> 9
phal ar 9
lor hiza</w> 9
mi stle 9
anti body</w> 9
ger m</w> 9
the sis</w> 9
the ad</w> 9
the atri 9
rh ino 9
ox al 9
ox ylum</w> 9
poly stichum</w> 9
tran sport</w> 9
chi ma 9
uri um</w> 9
eg ar</w> 9
che li 9
val u 9
val eri 9
men zi 9
ban g</w> 9
win kle</w> 9
squ at 9
hal luc 9
cur ren 9
pho id</w> 9
pho to</w> 9
sco ly 9
fla sk</w> 9
und i</w> 9
mag azine</w> 9
boo t 9
boo th</w> 9
cha en 9
ner 's</w> 9
cam phor</w> 9
fre sh</w> 9
cra b 9
cra sh</w> 9
bur ger</w> 9
stra in</w> 9
stra int</w> 9
sil ene</w> 9
hem at 9
tan gent</w> 9
vo wel</w> 9
her on</w> 9
her edi 9
har vest</w> 9
trac h 9
ass u</w> 9
pat ho 9
tion ing</w> 9
serv ant</w> 9
tal ity</w> 9
vir g 9
pter o 9
pter oc 9
fu ch 9
bul let</w> 9
nor mal</w> 9
stre ptom 9
pet er</w> 9
graph ical</w> 9
des ser 9
cri stata</w> 9
mul berry</w> 9
mul lein</w> 9
pur chase</w> 9
spec t 9
spec iosa</w> 9
ist 's</w> 9
pp a</w> 9
bas al</w> 9
dom e</w> 9
indi vid 9
cen sorship</w> 9
bat es</w> 9
bat tle 9
opter us</w> 9
ga vi 9
int el 9
fa ir 9
far mer</w> 9
zo on</w> 9
ear ed</w> 9
tiv al</w> 9
poli sh</w> 9
uck y</w> 9
rub ra</w> 9
sar rac 9
electro static</w> 9
cli ff</w> 9
cli tocybe</w> 9
soc ket</w> 9
ocar bon</w> 9
chro mat 9
eth mo 9
pon der 9
jun k</w> 9
vul ture</w> 9
san guin 9
mach ia</w> 9
ori entalis</w> 9
som al</w> 9
pub escens</w> 9
ure th 9
smo king</w> 9
smo oth 9
out put</w> 9
struc tural</w> 9
clu ster</w> 9
inf rar 9
wi steria</w> 9
liz er</w> 9
ae us</w> 9
ae py 9
ax iom</w> 9
mati sm</w> 9
mati cal</w> 9
fro g 9
sper ma</w> 9
lut ea</w> 9
ble m</w> 9
nit ure</w> 9
mes enter 9
sle eve</w> 9
cit ellus</w> 9
back ed</w> 9
ela stic</w> 9
tun a</w> 9
nat ur 9
by pass</w> 9
dam ages</w> 9
vin egar</w> 9
jap an</w> 9
sam buc 9
stu ff</w> 9
sou l</w> 9
air plane</w> 9
bel gian</w> 9
shor e</w> 9
yo te</w> 9
set ting</w> 9
set tlement</w> 9
physi ological</w> 9
ket o 9
spi ral</w> 9
sand piper</w> 9
hel min 9
hoo ded</w> 9
lim no 9
cop al</w> 9
mam mu 9
scor pion 9
ony m</w> 9
enter prise</w> 9
af ter</w> 9
del to 9
del ta</w> 9
je w</w> 9
atri o 9
psycho logical</w> 9
stal k</w> 9
dig it</w> 9
scri p 9
van illa</w> 9
direc tion</w> 9
syl van 9
syl vestris</w> 9
phen yl 9
oce an</w> 9
kn uck 9
rela tions</w> 9
odon ta</w> 9
gul l</w> 9
inde fin 9
inde pend 9
ind us</w> 9
geo logical</w> 9
photo graphic</w> 9
heli anthus</w> 9
pseu de 9
pseu domon 9
cast or</w> 9
cast anea</w> 9
sig ni 9
aer ial</w> 9
spiri tual</w> 9
cub an</w> 9
pyro la</w> 9
fur niture</w> 9
ligh ter</w> 9
ligh ting</w> 9
neg lec 9
canad ense</w> 9
tetra gon 9
hex ag 9
must ela</w> 9
basi di 9
gor gon 9
dd ler</w> 9
ropo gon</w> 9
calli tris</w> 9
partic ip 9
nut meg</w> 9
tempor ary</w> 9
mur der</w> 9
opo da</w> 9
cad mium</w> 9
fas c 9
fas hion</w> 9
ugh ing</w> 9
frac tion</w> 9
fel t</w> 9
plac entation</w> 9
sab bati 9
proces sor</w> 9
communic ations</w> 9
regi ster</w> 9
lyco podium</w> 9
rhiz a</w> 9
ante lope</w> 9
ordin ation</w> 9
max illary</w> 9
allo y</w> 9
plum e</w> 9
phyllo cla 9
cus hion</w> 9
buck thorn</w> 9
sag e 9
jer usalem</w> 9
myx obacter 9
blan k</w> 9
alpin a</w> 9
nur sing</w> 9
cloth ing</w> 9
diplo matic</w> 9
ethy lene</w> 9
agro pyron</w> 9
peti t</w> 9
need le 9
exec ution</w> 9
haz ard</w> 9
hir sut 9
transi t</w> 9
pes o</w> 9
uter ine</w> 9
law yer</w> 9
assa y</w> 9
mani asis</w> 9
glan s</w> 9
emer gency</w> 9
system a</w> 9
diss ol 9
shir t 9
adren ergic</w> 9
ocer eus</w> 9
teach ing</w> 9
mix ed</w> 9
clean ing</w> 9
scienti fic</w> 9
stur b 9
asp is</w> 9
asp ect</w> 9
winter green</w> 9
00 00 9
thyro id</w> 9
concer n</w> 9
andro meda</w> 9
fox tail</w> 9
carolin ensis</w> 9
carolin iana</w> 9
lub ri 9
spre ad</w> 9
adver ti 9
ody tes</w> 9
cig ar</w> 9
ane ous</w> 9
recor der</w> 9
ammon ium</w> 9
symbo l</w> 9
viri dis</w> 9
weap ons</w> 9
lysi machia</w> 9
horiz on</w> 9
goose foot</w> 9
mou th 9
combin ation</w> 9
condition ed</w> 9
stron g</w> 9
apri cot</w> 9
jour n 9
presi dent</w> 9
gall ery</w> 9
alas ka</w> 9
alum inum</w> 9
conden ser</w> 9
gravit ational</w> 9
fortun e</w> 9
fif th</w> 9
scot tish</w> 9
statistic s</w> 9
sphy ra 9
hero ic</w> 9
deter gent</w> 9
pim pernel</w> 9
take over</w> 9
supre me</w> 9
turk ish</w> 9
sylla ble</w> 9
jama ica</w> 9
wido w</w> 9
rox ylon</w> 9
cos mic</w> 9
defin ition</w> 9
mandi bular</w> 9
lact uca</w> 9
sulph ur</w> 9
billi ard</w> 9
circumfle x</w> 9
cuck oo</w> 9
anten na</w> 9
prop eller</w> 9
cardu elis</w> 9
fresh water</w> 9
masti go 9
armor ed</w> 9
litt or 9
selagin ella</w> 9
perfor mance</w> 9
consc iousness</w> 9
carcin oma</w> 9
pizz a</w> 9
plant ago</w> 9
penic illin</w> 9
myrme co 9
cerebr i</w> 9
fundam ental</w> 9
labyrin th 9
essen tial</w> 9
notho fagus</w> 9
torto ise</w> 9
torpe do</w> 9
cultiv ated</w> 9
pup pet</w> 9
arauc aria</w> 9
rotun difolia</w> 9
leish maniasis</w> 9
abs ence</w> 9
verben a</w> 9
monar da</w> 9
thorac ic</w> 9
chamaec y 9
himan topus</w> 9
clut ch</w> 9
huck leberry</w> 9
orio le</w> 9
ligu strum</w> 9
lespe deza</w> 9
eccle sias 9
soy bean</w> 9
pipi stre 9
marsu pi 9
streng th</w> 9
capsu le</w> 9
accom mod 9
toler ance</w> 9
augh ter</w> 9
cater pillar</w> 9
snak eroot</w> 9
polypo dy</w> 9
semper virens</w> 9
o' clock</w> 9
ancho vy</w> 9
calori e</w> 9
caeru lea</w> 9
lugg age</w> 9
mistle toe</w> 9
infrar ed</w> 9
z am 8
z iz 8
y e</w> 8
y al</w> 8
r er</w> 8
i lo 8
i op 8
i tic</w> 8
i ba</w> 8
i onic</w> 8
i ority</w> 8
a fro 8
m age</w> 8
o k</w> 8
o di 8
o an</w> 8
o eu 8
o virus</w> 8
o ven</w> 8
o charis</w> 8
s m 8
s u</w> 8
s low</w> 8
s ella</w> 8
s ula</w> 8
s elling</w> 8
l ment</w> 8
l ach 8
l ura</w> 8
l arix</w> 8
g ed</w> 8
g im 8
g ele 8
g low</w> 8
e in 8
e el 8
e po 8
e ia</w> 8
e ub 8
e ater</w> 8
e dic 8
e ster</w> 8
e gal 8
e bon 8
e flower</w> 8
e lidae</w> 8
e sii</w> 8
p ter</w> 8
p th</w> 8
p anth 8
p ula</w> 8
p re</w> 8
p ace</w> 8
t ch 8
t we 8
t ell 8
t ales</w> 8
t atus</w> 8
n an</w> 8
n ite</w> 8
d ang 8
d alis</w> 8
d ling</w> 8
c d 8
c ine</w> 8
c ry</w> 8
c tomy</w> 8
c rus 8
u .</w> 8
v aria</w> 8
v re</w> 8
x x 8
x us</w> 8
x im 8
x yl 8
h ec 8
h ut 8
h ast 8
h itch</w> 8
h inidae</w> 8
b um</w> 8
b order</w> 8
b est</w> 8
b re</w> 8
b ish 8
j ol 8
j ig 8
w ur 8
w ho 8
w it</w> 8
w ill 8
w ake</w> 8
k um 8
k 's</w> 8
k ak 8
k el</w> 8
k apin</w> 8
f y</w> 8
f om 8
f 's</w> 8
2 4</w> 8
1 4</w> 8
1 8 8
in d</w> 8
in es 8
in ap 8
in qu 8
in car 8
in ex 8
in ist</w> 8
in ium</w> 8
in fin 8
in iti 8
in jection</w> 8
en iaceae</w> 8
er ent</w> 8
er go 8
an as 8
an ine</w> 8
an tic 8
an ce 8
an ser 8
an alog</w> 8
ti t</w> 8
ti gh 8
ti lity</w> 8
ti bet 8
ti eth</w> 8
ar y 8
ar om 8
ar ec 8
ar men 8
ar alia</w> 8
ar ab</w> 8
or d 8
or ia</w> 8
or 's</w> 8
or yc 8
or bit</w> 8
al do 8
al idae</w> 8
al im 8
al low 8
al arm</w> 8
al umin 8
al cea</w> 8
ro ve</w> 8
ro sea</w> 8
ro ute</w> 8
ro wing</w> 8
ro be</w> 8
ro gation</w> 8
st ation 8
st unt</w> 8
at s</w> 8
at al</w> 8
at es</w> 8
on i 8
on aria</w> 8
on iidae</w> 8
ac tu 8
ac char 8
ac re</w> 8
ac anthus</w> 8
ac qui 8
re us</w> 8
re de 8
re ar</w> 8
re vi 8
re tar 8
re strial</w> 8
re flux</w> 8
re infor 8
li i</w> 8
li me 8
li ma 8
li que 8
ri d 8
ri ed</w> 8
ri char 8
ch y</w> 8
ch ment</w> 8
ch ial</w> 8
si l</w> 8
si aceae</w> 8
si mu 8
am idae</w> 8
am bro 8
am ino 8
am pli 8
am big 8
co d</w> 8
co al 8
co bal 8
le e 8
le f 8
le dger</w> 8
lo ver</w> 8
lo bul 8
lo ides</w> 8
lo dg 8
di te</w> 8
di sci 8
di pole</w> 8
di stress</w> 8
gen tle 8
ra ven 8
ra pe</w> 8
ra ke</w> 8
ra tional</w> 8
ra bleness</w> 8
ra isin</w> 8
es ch 8
es sive</w> 8
ph od 8
ph agus</w> 8
th al</w> 8
th im 8
th ing 8
th ian</w> 8
th fulness</w> 8
th under 8
th mic</w> 8
th atch</w> 8
la e</w> 8
la se</w> 8
la im 8
la de</w> 8
la sh</w> 8
la vender</w> 8
il le 8
is on</w> 8
is lam</w> 8
un ia</w> 8
un ce</w> 8
un tain</w> 8
ic ing</w> 8
ic ula</w> 8
el bow</w> 8
ur tium</w> 8
it s</w> 8
po ut</w> 8
po mac 8
po uch</w> 8
as i</w> 8
as ing</w> 8
as car 8
as phod 8
de er 8
de par 8
de ce 8
de fic 8
de stin 8
de lion</w> 8
de wberry</w> 8
de lay</w> 8
de mand</w> 8
de tention</w> 8
de pth</w> 8
et amine</w> 8
om phal 8
ul tr 8
ul atum</w> 8
em us</w> 8
em per 8
em pi 8
em bar 8
em ony</w> 8
ter ra 8
ter mi 8
ag e 8
to ur 8
to ed</w> 8
to ad 8
to ll 8
se g 8
se us</w> 8
se di 8
se asi 8
se ven</w> 8
se cant</w> 8
bo ut 8
bo und</w> 8
sp ri 8
sp el 8
sp ath 8
sp ell</w> 8
sp ear 8
sp ade 8
sh er 8
sh ag 8
sh ed</w> 8
sh ad</w> 8
sh ak 8
sh ake</w> 8
ap a</w> 8
ap er 8
ap peti 8
ap pear 8
mo s</w> 8
mo h 8
mo t</w> 8
mo bile</w> 8
ol um</w> 8
ol aris</w> 8
ab u 8
ab ane</w> 8
ab asia</w> 8
ab ronia</w> 8
ec ta 8
ec lip 8
qu er</w> 8
qu it 8
qu at</w> 8
qu and 8
ad el 8
ad op 8
ad aceae</w> 8
ad voc 8
ad dict</w> 8
per o 8
per it 8
per id 8
per man 8
per pet 8
per cus 8
per fec 8
ut us</w> 8
con ium</w> 8
con fer 8
con val 8
con form 8
con vic 8
con tent</w> 8
con duct</w> 8
con struction</w> 8
con ifer 8
con stric 8
oc ent 8
oc idae</w> 8
oc ell 8
oc ular</w> 8
pro p</w> 8
pro tection</w> 8
pro blem</w> 8
uc us</w> 8
com po 8
com bre 8
lan dica</w> 8
ub arb</w> 8
ne uri 8
ne sian</w> 8
sc at 8
sc ent</w> 8
sc allo 8
sc uti 8
sc ented</w> 8
ent us</w> 8
ig er</w> 8
op or 8
op ath 8
op position</w> 8
ati tis</w> 8
te m</w> 8
te stu 8
te enth</w> 8
me lia</w> 8
pe l</w> 8
pe de</w> 8
pe el</w> 8
pe dia</w> 8
ho se</w> 8
ho ary</w> 8
hy la</w> 8
car y 8
car rot</w> 8
par ag 8
par ap 8
par kin 8
par alysis</w> 8
do o</w> 8
gra ec 8
be e 8
be ak</w> 8
be aver</w> 8
pi st 8
pi ment 8
pi dity</w> 8
vi i</w> 8
vi burnum</w> 8
ver s</w> 8
ver 's</w> 8
ver ni 8
ver dict</w> 8
sy phili 8
sy rup</w> 8
no se 8
no va</w> 8
ma il 8
gu est</w> 8
gu ine 8
bi tis</w> 8
bi bit</w> 8
bi byte</w> 8
ff e</w> 8
ff on</w> 8
ta g</w> 8
ta ic</w> 8
ta ff 8
ta urus</w> 8
ta iner</w> 8
ta uto 8
mon ey 8
cor d 8
cor ro 8
cor dy 8
cor ax</w> 8
for me</w> 8
im pro 8
im pulse</w> 8
tic ation</w> 8
sa y</w> 8
bl at 8
tri m 8
tri g 8
tri ck</w> 8
ru pi 8
ast ing</w> 8
ast hen 8
ast ronom 8
ste p 8
ste am 8
pre dic 8
su a 8
mar tin 8
mar tes</w> 8
mar tin</w> 8
ex cre 8
and er 8
cy r 8
cy tic</w> 8
cy cli 8
cy stis</w> 8
cal es</w> 8
cal ity</w> 8
cal la</w> 8
cal amin 8
au x</w> 8
au l</w> 8
au ro 8
au th 8
au stro 8
fl in 8
ci dium</w> 8
ci ousness</w> 8
ci dia</w> 8
wh oo 8
tro l 8
tro pe</w> 8
gre ase</w> 8
bu dg 8
man ia</w> 8
go b 8
der s</w> 8
der mo 8
der iv 8
ha i 8
anth aceae</w> 8
io sus</w> 8
dro ps</w> 8
fer ae</w> 8
min u 8
min ess</w> 8
da h</w> 8
da ub 8
da vi 8
lin o 8
lin ked</w> 8
lin kage</w> 8
cre me</w> 8
cre ature</w> 8
tra iler</w> 8
comm en 8
comm el 8
comm ut 8
sub phylum</w> 8
ll y</w> 8
plan etary</w> 8
dis count</w> 8
tu li 8
tu mour</w> 8
ach a</w> 8
ni e</w> 8
cla y 8
pri mi 8
pri ze</w> 8
ten der</w> 8
ten sin</w> 8
fe lic 8
fe bru 8
mu d 8
cer emony</w> 8
str ator</w> 8
ill ata</w> 8
gro en 8
os cop 8
bre ech</w> 8
bre eze</w> 8
dic ran 8
ob us</w> 8
ob lig 8
ob last</w> 8
ob acter</w> 8
clo ck 8
clo sing</w> 8
clo sure</w> 8
ari ales</w> 8
ca ir 8
ca ine</w> 8
ca vi 8
ca use</w> 8
cho s</w> 8
inter face</w> 8
cro ok 8
ther m</w> 8
ther es</w> 8
ther mi 8
pla sty</w> 8
tr ate</w> 8
ple th 8
ster ing</w> 8
ster one</w> 8
ster oid</w> 8
ty phlo 8
stri ate</w> 8
stri ction</w> 8
met ri 8
met acar 8
od d</w> 8
sk ater</w> 8
du st 8
mus a</w> 8
mus k 8
mus sel</w> 8
mus lim</w> 8
tor ship</w> 8
sch ist 8
sch eme</w> 8
lu pus</w> 8
lu pinus</w> 8
ba w 8
cat al 8
cat ing</w> 8
cat tle 8
sti ll 8
bri er</w> 8
ide ctomy</w> 8
cul t</w> 8
bra s 8
sho vel</w> 8
den om 8
ram ine</w> 8
lor is</w> 8
mi k 8
mi stress</w> 8
gal ac 8
gal ium</w> 8
the ology</w> 8
mor tality</w> 8
lam p 8
lam a</w> 8
tom ography</w> 8
rh ubarb</w> 8
sn or 8
sw er 8
sw it 8
poly podium</w> 8
poly gala</w> 8
arter ial</w> 8
arter itis</w> 8
mac ulata</w> 8
che on</w> 8
che ir 8
che que</w> 8
men is 8
sur vi 8
squ aw</w> 8
pu er 8
glo t 8
glo sso 8
cur rant</w> 8
but eo</w> 8
jo ke</w> 8
ju dge</w> 8
cha ir 8
pap ri 8
pap ili 8
cra w 8
bur g 8
sil kworm</w> 8
off en 8
form ing</w> 8
tan sy</w> 8
vo te</w> 8
har p</w> 8
bac on</w> 8
vir tu 8
fri ction</w> 8
pter idae</w> 8
pter ido 8
fu ge</w> 8
bul bo 8
dra gon 8
pet rel</w> 8
pet unia</w> 8
sor us</w> 8
lon gi 8
gam bling</w> 8
eu ra 8
eu ony 8
eu genia</w> 8
gla ss 8
gla uca</w> 8
equ al</w> 8
des ensi 8
fin ish</w> 8
cri ticism</w> 8
ish ed</w> 8
mul let</w> 8
sol eno 8
fal co</w> 8
proc ell 8
pic us</w> 8
mas tig 8
pur se</w> 8
gran adi 8
tar si 8
cir cus</w> 8
opter ous</w> 8
opter yx</w> 8
cle ar 8
cle ft</w> 8
cas tille 8
far ming</w> 8
zo arc 8
spor angium</w> 8
comp li 8
sem icon 8
chin kapin</w> 8
idi s</w> 8
she i 8
cli tor 8
sta in</w> 8
sta sis</w> 8
ato m</w> 8
ato logy</w> 8
bom ba 8
phor e</w> 8
ant ine</w> 8
chro matic</w> 8
dre ss 8
vis or</w> 8
phi idae</w> 8
pon g</w> 8
pon dweed</w> 8
jun cus</w> 8
vul pes</w> 8
san tal 8
wat t</w> 8
wat tle</w> 8
vit ae</w> 8
som atic</w> 8
gri d</w> 8
pub lic 8
ev o</w> 8
hon or 8
aut um 8
nec ro 8
nec ked</w> 8
bran chi 8
dan delion</w> 8
sin ensis</w> 8
wi g</w> 8
acc us 8
new born</w> 8
yl lis</w> 8
ax ial</w> 8
fro zen</w> 8
sper mae</w> 8
gram matical</w> 8
vic ia</w> 8
kin o</w> 8
mes o 8
gast er 8
gast ero 8
gast rica</w> 8
cit ation</w> 8
epi theli 8
spin ning</w> 8
medic ago</w> 8
ela eag 8
offic ial</w> 8
brac te 8
jap on 8
adi antum</w> 8
aff airs</w> 8
set ter</w> 8
hun garian</w> 8
sup porting</w> 8
kno w</w> 8
eli tis</w> 8
cab in</w> 8
ja w 8
lun ch</w> 8
pel argon 8
pec tin 8
psycho sis</w> 8
zy gn 8
black berry</w> 8
dig ger</w> 8
ado s</w> 8
ado w 8
sla vic</w> 8
fly catcher</w> 8
fran k 8
phen y 8
gly co 8
loo k</w> 8
dal bergia</w> 8
kn ap 8
rela x 8
sim plex</w> 8
multi pli 8
clin tonia</w> 8
lum in 8
ind o</w> 8
cott age</w> 8
nucle o 8
geo graphy</w> 8
pli ers</w> 8
cere al</w> 8
heli x</w> 8
coo king</w> 8
fol ding</w> 8
tox o 8
actin omyc 8
icul um</w> 8
rhe um</w> 8
resi dence</w> 8
prim ula</w> 8
sati n</w> 8
neg li 8
econom ics</w> 8
tech ni 8
audi o</w> 8
ka uri</w> 8
crac y</w> 8
velo city</w> 8
amo unt</w> 8
lati folia</w> 8
wol ff 8
ana esthetic</w> 8
scar ab 8
eph ed 8
matri caria</w> 8
lingu al</w> 8
high er</w> 8
chal k</w> 8
gener ator</w> 8
pus h 8
cru st 8
va ult</w> 8
free ze</w> 8
nom inal</w> 8
fluor es 8
noc tu 8
inte gra 8
flow ered</w> 8
alpin um</w> 8
rece ption</w> 8
liter ature</w> 8
fen e 8
shoo t</w> 8
paral lax</w> 8
vil lea</w> 8
phar mac 8
petro leum</w> 8
fet al</w> 8
jac ob 8
fon tan 8
ono tus</w> 8
liber ty</w> 8
nast urtium</w> 8
trop ic</w> 8
transi tive</w> 8
fring e</w> 8
roll ing</w> 8
pad dle</w> 8
dun e</w> 8
whi pping</w> 8
classi fication</w> 8
fis sure</w> 8
rib es</w> 8
cover ed</w> 8
holo th 8
ento sa</w> 8
admini strative</w> 8
ston e 8
ely mus</w> 8
shel f</w> 8
shel ter</w> 8
manag er</w> 8
ventri cle</w> 8
pass ing</w> 8
jas min 8
ali en 8
clean er</w> 8
dendro ica</w> 8
german ic</w> 8
onto logy</w> 8
ophag a</w> 8
joh n</w> 8
joh n 8
eryth ronium</w> 8
pav o</w> 8
arab ian</w> 8
caro tid</w> 8
angi oma</w> 8
omyco tina</w> 8
differ ence</w> 8
rose wood</w> 8
agri culture</w> 8
echin o 8
drin k</w> 8
kill ing</w> 8
atten tion</w> 8
chim ney</w> 8
fav or 8
sit ting</w> 8
demo cra 8
pain ter</w> 8
ern ity</w> 8
chol era</w> 8
box ing</w> 8
wee vil</w> 8
croco dy 8
dram atic</w> 8
alle gh 8
prob ability</w> 8
neut r 8
civi lization</w> 8
bread th</w> 8
cogni tion</w> 8
figh ting</w> 8
propor tional</w> 8
turni x</w> 8
hybri d</w> 8
imag inary</w> 8
palat ine</w> 8
stil t</w> 8
protec tive</w> 8
parasi te</w> 8
synthe tic</w> 8
jew ish</w> 8
vapo r</w> 8
crisp a</w> 8
laryn go 8
ocarp aceae</w> 8
aven s</w> 8
glac ier</w> 8
chis el</w> 8
topo logy</w> 8
consum er</w> 8
pariet al</w> 8
beli ef</w> 8
phila delph 8
fast ener</w> 8
diamon d</w> 8
shop ping</w> 8
scan ner</w> 8
lanceol ata</w> 8
pru ri 8
engra ving</w> 8
loun ge</w> 8
peru vian</w> 8
const ancy</w> 8
wait ing</w> 8
glossi dae</w> 8
thous and</w> 8
gink go 8
quisi tion</w> 8
embro id 8
braz ilian</w> 8
letter s</w> 8
transmit ter</w> 8
speed well</w> 8
kent ucky</w> 8
fr uc 8
ariz ona</w> 8
alex and 8
hep atic</w> 8
carti lage</w> 8
cardam ine</w> 8
exha ust</w> 8
cust ard</w> 8
obli que</w> 8
horses hoe</w> 8
pitu itary</w> 8
lacri mal</w> 8
cotyle don 8
occipit al</w> 8
carpen ter's</w> 8
vire o</w> 8
budd h 8
trage laphus</w> 8
leng th</w> 8
publish ing</w> 8
behavi or</w> 8
envi ron 8
annon a</w> 8
atmo spher 8
aman ita</w> 8
guit ar</w> 8
lych nis</w> 8
expon ential</w> 8
malt ese</w> 8
stercu lia</w> 8
type writer</w> 8
macad amia</w> 8
dioscor ea</w> 8
gossy pium</w> 8
frut escens</w> 8
tibi alis</w> 8
pheas ant</w> 8
depreci ation</w> 8
seis mo 8
mosa ic</w> 8
admi ral</w> 8
theatri cal</w> 8
sambuc us</w> 8
atrio ventricular</w> 8
sage brush</w> 8
bish op 8
defic it</w> 8
emper or</w> 8
termi tidae</w> 8
calamin tha</w> 8
budg et</w> 8
febru ary</w> 8
pelargon ium</w> 8
z a 7
z z</w> 7
z ee</w> 7
z apo 7
y on 7
y ness</w> 7
y ear 7
y east</w> 7
r urus</w> 7
i or 7
i ella</w> 7
i form</w> 7
i lor</w> 7
i bis</w> 7
a ja 7
a que 7
a ury</w> 7
m b</w> 7
m ess</w> 7
m ing 7
m ata</w> 7
o h 7
o ar 7
o ec 7
o vi 7
o stre 7
o eno 7
o lig 7
o phyllum</w> 7
s ent</w> 7
s ang 7
s ement</w> 7
s able</w> 7
s und 7
s mel 7
s ago</w> 7
l le</w> 7
l one</w> 7
l uck</w> 7
g ag 7
g av 7
g iness</w> 7
g lor 7
g run 7
g ument</w> 7
g athering</w> 7
e z 7
e k 7
e id</w> 7
e ur</w> 7
e cho 7
e pin 7
e as</w> 7
e uri 7
e tics</w> 7
e hound</w> 7
e volution</w> 7
p ing 7
p ist</w> 7
p ica</w> 7
p rum 7
p anthera</w> 7
t uc 7
t ting</w> 7
t let</w> 7
t atum</w> 7
t eller</w> 7
n ol 7
n ard</w> 7
n ya</w> 7
n ings</w> 7
n uci 7
d h 7
d u</w> 7
d ak 7
d ella</w> 7
d ative</w> 7
d run 7
c ae</w> 7
c ess</w> 7
c ly 7
c age</w> 7
c lon 7
c ider</w> 7
u . 7
u ph 7
u din 7
v o</w> 7
v on</w> 7
v ar</w> 7
v ism</w> 7
h ic 7
h ock</w> 7
h anger</w> 7
b w</w> 7
b ation</w> 7
b au 7
b ago</w> 7
j en 7
j it 7
j ut 7
j ob 7
j ava</w> 7
w al</w> 7
w ad 7
w der</w> 7
w ide</w> 7
k ra 7
k om 7
k ol 7
k ab 7
k op 7
k nit 7
k ah</w> 7
f ry</w> 7
f ying</w> 7
q i</w> 7
1 2</w> 7
in k 7
in ter</w> 7
in ite</w> 7
in ner</w> 7
in sul 7
in side</w> 7
in clusion</w> 7
en i</w> 7
en cyc 7
er in 7
er ite</w> 7
er ra</w> 7
an er</w> 7
an or 7
an cy 7
an ox 7
an ship</w> 7
an aph 7
an iso 7
ti p 7
ti us</w> 7
ti ble</w> 7
ar en 7
ar re 7
ar ri 7
ar mour</w> 7
or nam 7
or yx</w> 7
al ab 7
al iz 7
al ger 7
al bat 7
al leg 7
al ley</w> 7
al osa</w> 7
al iser</w> 7
al izer</w> 7
ro e</w> 7
ro sem 7
ro ugh 7
st um 7
st ment</w> 7
st able</w> 7
st hen 7
at ine</w> 7
at te 7
at las</w> 7
on ry</w> 7
on ite</w> 7
on ella</w> 7
on na 7
on ics</w> 7
ac ker</w> 7
ac ular</w> 7
ac aulis</w> 7
re al 7
re pe 7
re tri 7
re sol 7
re mov 7
re duction</w> 7
re tte</w> 7
re sort</w> 7
re spiration</w> 7
li er</w> 7
li ke</w> 7
li men 7
li gn 7
li lac</w> 7
ri l</w> 7
ri b</w> 7
ri sing</w> 7
ch on</w> 7
ch ab 7
ch ed</w> 7
ch is</w> 7
ch iness</w> 7
ch uck</w> 7
si r 7
si e</w> 7
si to 7
si mar 7
si lu 7
si erra</w> 7
am i 7
am ent</w> 7
am ber 7
am ese</w> 7
co b 7
co r</w> 7
co el 7
co ast 7
co te</w> 7
co up</w> 7
co ides</w> 7
co hun 7
co pernic 7
le i 7
le x 7
le it 7
le tree</w> 7
le pus</w> 7
lo l</w> 7
lo tion</w> 7
lo cu 7
lo dge</w> 7
lo gue</w> 7
di l 7
di e 7
di x</w> 7
di ar 7
di idae</w> 7
di ver</w> 7
di ck</w> 7
di gi 7
di lat 7
di sper 7
di scre 7
di tch</w> 7
di scri 7
di ethy 7
di varic 7
di sturb 7
gen es</w> 7
gen re</w> 7
gen icul 7
ra p</w> 7
es us</w> 7
es tive</w> 7
ph age</w> 7
ph rag 7
th es 7
th em 7
th ol 7
th ink</w> 7
la gen 7
la ser</w> 7
la by</w> 7
la ugh</w> 7
la burnum</w> 7
il lance</w> 7
is ra 7
is lam 7
is phere</w> 7
ic terus</w> 7
el o</w> 7
el y</w> 7
el on 7
ur ge</w> 7
it al 7
it ness</w> 7
it ableness</w> 7
po i 7
po ke</w> 7
po em</w> 7
